{
  "version": "1.0",
  "truncation": null,
  "padding": null,
  "added_tokens": [
    {
      "id": 0,
      "content": "<pad>",
      "single_word": false,
      "lstrip": false,
      "rstrip": false,
      "normalized": false,
      "special": true
    },
    {
      "id": 1,
      "content": "<s>",
      "single_word": false,
      "lstrip": false,
      "rstrip": false,
      "normalized": false,
      "special": true
    },
    {
      "id": 2,
      "content": "</s>",
      "single_word": false,
      "lstrip": false,
      "rstrip": false,
      "normalized": false,
      "special": true
    },
    {
      "id": 3,
      "content": "<unk>",
      "single_word": false,
      "lstrip": false,
      "rstrip": false,
      "normalized": false,
      "special": true
    },
    {
      "id": 4,
      "content": "<mask>",
      "single_word": false,
      "lstrip": false,
      "rstrip": false,
      "normalized": false,
      "special": true
    }
  ],
  "normalizer": null,
  "pre_tokenizer": {
    "type": "ByteLevel",
    "add_prefix_space": true,
    "trim_offsets": true,
    "use_regex": true
  },
  "post_processor": null,
  "decoder": null,
  "model": {
    "type": "BPE",
    "dropout": null,
    "unk_token": null,
    "continuing_subword_prefix": null,
    "end_of_word_suffix": null,
    "fuse_unk": false,
    "byte_fallback": false,
    "ignore_merges": false,
    "vocab": {
      "<pad>": 0,
      "<s>": 1,
      "</s>": 2,
      "<unk>": 3,
      "<mask>": 4,
      "\"": 5,
      "$": 6,
      "%": 7,
      "&": 8,
      "'": 9,
      "(": 10,
      ")": 11,
      "*": 12,
      "+": 13,
      ",": 14,
      "-": 15,
      "/": 16,
      "0": 17,
      "1": 18,
      "2": 19,
      "3": 20,
      "4": 21,
      "5": 22,
      "6": 23,
      "7": 24,
      "8": 25,
      "9": 26,
      ":": 27,
      ";": 28,
      "<": 29,
      "=": 30,
      "A": 31,
      "B": 32,
      "C": 33,
      "D": 34,
      "E": 35,
      "F": 36,
      "G": 37,
      "H": 38,
      "I": 39,
      "J": 40,
      "K": 41,
      "L": 42,
      "M": 43,
      "N": 44,
      "O": 45,
      "P": 46,
      "Q": 47,
      "R": 48,
      "S": 49,
      "T": 50,
      "U": 51,
      "V": 52,
      "W": 53,
      "X": 54,
      "Y": 55,
      "Z": 56,
      "[": 57,
      "\\": 58,
      "]": 59,
      "a": 60,
      "b": 61,
      "c": 62,
      "d": 63,
      "e": 64,
      "f": 65,
      "g": 66,
      "h": 67,
      "i": 68,
      "j": 69,
      "k": 70,
      "l": 71,
      "m": 72,
      "n": 73,
      "o": 74,
      "p": 75,
      "q": 76,
      "r": 77,
      "s": 78,
      "t": 79,
      "u": 80,
      "v": 81,
      "w": 82,
      "x": 83,
      "y": 84,
      "z": 85,
      "{": 86,
      "}": 87,
      "~": 88,
      "¡": 89,
      "¢": 90,
      "£": 91,
      "¤": 92,
      "¥": 93,
      "¦": 94,
      "§": 95,
      "¨": 96,
      "©": 97,
      "ª": 98,
      "«": 99,
      "¬": 100,
      "®": 101,
      "¯": 102,
      "°": 103,
      "±": 104,
      "²": 105,
      "´": 106,
      "µ": 107,
      "¶": 108,
      "·": 109,
      "¸": 110,
      "¹": 111,
      "º": 112,
      "»": 113,
      "¼": 114,
      "½": 115,
      "¾": 116,
      "¿": 117,
      "Â": 118,
      "Ã": 119,
      "Ä": 120,
      "Å": 121,
      "É": 122,
      "Ê": 123,
      "Ë": 124,
      "Î": 125,
      "Ï": 126,
      "à": 127,
      "á": 128,
      "â": 129,
      "Ċ": 130,
      "Ġ": 131,
      "Ģ": 132,
      "ģ": 133,
      "Ĥ": 134,
      "ĥ": 135,
      "Ħ": 136,
      "ħ": 137,
      "Ĩ": 138,
      "ĩ": 139,
      "Ī": 140,
      "ī": 141,
      "Ĭ": 142,
      "ĭ": 143,
      "Į": 144,
      "į": 145,
      "Ĳ": 146,
      "ĳ": 147,
      "Ĵ": 148,
      "ĵ": 149,
      "Ķ": 150,
      "ķ": 151,
      "ĸ": 152,
      "Ĺ": 153,
      "ĺ": 154,
      "Ļ": 155,
      "ļ": 156,
      "Ľ": 157,
      "ľ": 158,
      "Ł": 159,
      "Ń": 160,
      "th": 161,
      "Ġa": 162,
      "in": 163,
      "à¤": 164,
      "ti": 165,
      "on": 166,
      "the": 167,
      "re": 168,
      "Ġthe": 169,
      "en": 170,
      "Ġo": 171,
      "à¦": 172,
      "al": 173,
      "er": 174,
      "is": 175,
      "Ġs": 176,
      "nd": 177,
      "es": 178,
      "Ġc": 179,
      "Ġof": 180,
      "an": 181,
      "or": 182,
      "ic": 183,
      "Ġp": 184,
      "ed": 185,
      "Ġin": 186,
      "tion": 187,
      "Ġf": 188,
      "Ġà¤": 189,
      "Ġand": 190,
      "Ġw": 191,
      "at": 192,
      "Ġm": 193,
      "Ġt": 194,
      "ar": 195,
      "à¥": 196,
      "ing": 197,
      "Ġb": 198,
      "ro": 199,
      "Ġe": 200,
      "as": 201,
      "us": 202,
      "ent": 203,
      "Ġd": 204,
      "Ġh": 205,
      "ation": 206,
      "it": 207,
      "Ġis": 208,
      "ci": 209,
      "Ġto": 210,
      "lo": 211,
      "Ġre": 212,
      "om": 213,
      "le": 214,
      "ur": 215,
      "tic": 216,
      "ul": 217,
      "ce": 218,
      "ist": 219,
      "ra": 220,
      "li": 221,
      "ly": 222,
      "ĠI": 223,
      "Ġà¦": 224,
      "st": 225,
      "ch": 226,
      "ve": 227,
      "==": 228,
      "Ġn": 229,
      "Ġth": 230,
      "ĠA": 231,
      "ri": 232,
      "Ġg": 233,
      "Ġcon": 234,
      "ct": 235,
      "id": 236,
      "ment": 237,
      "à§": 238,
      "à¦¾": 239,
      "à¥Ģ": 240,
      "Ġas": 241,
      "Ġfor": 242,
      "ma": 243,
      "ĠT": 244,
      "Ġbe": 245,
      "Ġma": 246,
      "he": 247,
      "Ġex": 248,
      "od": 249,
      "Ġl": 250,
      "ess": 251,
      "à¤¾": 252,
      "Ġà¤ķ": 253,
      "ate": 254,
      "ter": 255,
      "Ġsu": 256,
      "ous": 257,
      "ĠB": 258,
      "tu": 259,
      "op": 260,
      "el": 261,
      "ith": 262,
      "Ġco": 263,
      "ver": 264,
      "Ġpro": 265,
      "man": 266,
      "ĠC": 267,
      "ical": 268,
      "ge": 269,
      "Ġal": 270,
      "mp": 271,
      "Ġde": 272,
      "istor": 273,
      "Ġwith": 274,
      "Ġor": 275,
      "ence": 276,
      "Ġby": 277,
      "ut": 278,
      "Ġwh": 279,
      "gh": 280,
      "Ġon": 281,
      "ir": 282,
      "lu": 283,
      "à¤¤": 284,
      "à¥ĩ": 285,
      "à¥Ī": 286,
      "ta": 287,
      "ĠĠ": 288,
      "ĠS": 289,
      "Ġan": 290,
      "ity": 291,
      "und": 292,
      "se": 293,
      "il": 294,
      "ĠInd": 295,
      "Ġare": 296,
      "ia": 297,
      "Ġ==": 298,
      "Ġ1": 299,
      "ĠThe": 300,
      "un": 301,
      "Ġhistor": 302,
      "hi": 303,
      "Ġthat": 304,
      "ol": 305,
      "ations": 306,
      "ther": 307,
      "te": 308,
      "ric": 309,
      "thema": 310,
      "Ġsci": 311,
      "ts": 312,
      "tical": 313,
      "ow": 314,
      "res": 315,
      "ction": 316,
      "qu": 317,
      "Ĩà¦": 318,
      "à¤°": 319,
      "à¤¿": 320,
      "Ġà¤¹": 321,
      "à¥į": 322,
      "Ġà¦Ĩà¦": 323,
      "ers": 324,
      "los": 325,
      "ad": 326,
      "pe": 327,
      "ion": 328,
      "Ġmathema": 329,
      "Ġinc": 330,
      "ere": 331,
      "ĠE": 332,
      "Ġli": 333,
      "hy": 334,
      "fic": 335,
      "Ġit": 336,
      "Ġso": 337,
      "la": 338,
      "ĠM": 339,
      "du": 340,
      "Ġus": 341,
      "Ġ(": 342,
      "ome": 343,
      "hilos": 344,
      "hilosop": 345,
      "Ġme": 346,
      "log": 347,
      "rom": 348,
      "Ġcom": 349,
      "enti": 350,
      "mic": 351,
      "Ġag": 352,
      "tics": 353,
      "Ġcons": 354,
      "ore": 355,
      "ans": 356,
      "Ġfrom": 357,
      "ural": 358,
      "ricul": 359,
      "Ġ2": 360,
      "di": 361,
      "ĠP": 362,
      "tern": 363,
      "Ġphilosop": 364,
      "tim": 365,
      "ated": 366,
      "ĠIn": 367,
      "Ġ===": 368,
      "ich": 369,
      "pp": 370,
      "Ġse": 371,
      "ĠD": 372,
      "ms": 373,
      "Ġwas": 374,
      "ĠIndia": 375,
      "olog": 376,
      "ces": 377,
      "ness": 378,
      "Ġwhich": 379,
      "am": 380,
      "00": 381,
      "Ġinf": 382,
      "Ġcos": 383,
      "Ġcent": 384,
      "ĠBra": 385,
      "ies": 386,
      "ĠBrah": 387,
      "cious": 388,
      "ble": 389,
      "Ġv": 390,
      "tive": 391,
      "Ġwor": 392,
      "Ġsub": 393,
      "Ġcosmic": 394,
      "ĠBrahman": 395,
      "ciousness": 396,
      "¬à¦": 397,
      "¼à¦¾": 398,
      "ĵà¦": 399,
      "à¤¨": 400,
      "à¤µ": 401,
      "à¤¸": 402,
      "à¤Ł": 403,
      "à¦¼à¦¾": 404,
      "à¦ĵà¦": 405,
      "Ġà¤®": 406,
      "Ġà¤ĸ": 407,
      "à§į": 408,
      "à¦ĵà¦¯": 409,
      "Ġst": 410,
      "ĠG": 411,
      "de": 412,
      "Ġen": 413,
      "ast": 414,
      "eri": 415,
      "ber": 416,
      "ĠH": 417,
      "tions": 418,
      "Ġha": 419,
      "so": 420,
      "Ġac": 421,
      "Ġdi": 422,
      "um": 423,
      "og": 424,
      "Ġsuch": 425,
      "est": 426,
      "Ġfo": 427,
      "Ġexp": 428,
      "and": 429,
      "ugh": 430,
      "ant": 431,
      "ot": 432,
      "Ġagricul": 433,
      "Ġhistory": 434,
      "Ġr": 435,
      "Ġstu": 436,
      "ture": 437,
      "Ġcentur": 438,
      "ure": 439,
      "har": 440,
      "ĠF": 441,
      "Ġar": 442,
      "ĠN": 443,
      "Ġid": 444,
      "tain": 445,
      "mental": 446,
      "ism": 447,
      "Ġmathematics": 448,
      "Ġpar": 449,
      "Ġdis": 450,
      "ew": 451,
      "ect": 452,
      "Ġint": 453,
      "Ġall": 454,
      "Ġphilosophy": 455,
      "'s": 456,
      "vid": 457,
      "Ġk": 458,
      "ian": 459,
      "ff": 460,
      "ality": 461,
      "str": 462,
      "Ġinclu": 463,
      "con": 464,
      "ĠW": 465,
      "Ġri": 466,
      "ĠCon": 467,
      "Ġ19": 468,
      "ind": 469,
      "ig": 470,
      "im": 471,
      "os": 472,
      "lop": 473,
      "iz": 474,
      "Ġhas": 475,
      "ments": 476,
      "et": 477,
      "Ġ\"": 478,
      "ally": 479,
      "ties": 480,
      "Ġte": 481,
      "ĠĠĠĠ": 482,
      "Ġcont": 483,
      "Ġcentury": 484,
      "tural": 485,
      "ste": 486,
      "Ġun": 487,
      "Ġhave": 488,
      "âĢ": 489,
      "velop": 490,
      "Ġat": 491,
      "ine": 492,
      "Ġsy": 493,
      "Ġwere": 494,
      "Ġscience": 495,
      "ds": 496,
      "Ġtheor": 497,
      "Ġfund": 498,
      "ctu": 499,
      "ding": 500,
      "Ġgen": 501,
      "tiv": 502,
      "ite": 503,
      "Ġdevelop": 504,
      "Ġits": 505,
      "ld": 506,
      "red": 507,
      "Ġman": 508,
      "ten": 509,
      "Ġmo": 510,
      "elf": 511,
      "Ġi": 512,
      "Ġch": 513,
      "ary": 514,
      "ĠIt": 515,
      "ĠTh": 516,
      "low": 517,
      "ĠR": 518,
      "ics": 519,
      "Ġexist": 520,
      "Ġstud": 521,
      "led": 522,
      "Ġscienti": 523,
      "Ġ20": 524,
      "amental": 525,
      "der": 526,
      "reas": 527,
      "Ġreality": 528,
      "Ġcomp": 529,
      "Ġfundamental": 530,
      "ry": 531,
      "ern": 532,
      "ay": 533,
      "Ġother": 534,
      "ang": 535,
      "rop": 536,
      "ternal": 537,
      "Ġtheir": 538,
      "Ġprodu": 539,
      "ear": 540,
      "mer": 541,
      "Ġob": 542,
      "ance": 543,
      "Ġmod": 544,
      "ology": 545,
      "Ġrigh": 546,
      "ates": 547,
      "Ġapp": 548,
      "ĠAt": 549,
      "now": 550,
      "Ġle": 551,
      "Ġcan": 552,
      "Ġself": 553,
      "Ġstudy": 554,
      "Ġab": 555,
      "Ġad": 556,
      "Ġaction": 557,
      "Ġpo": 558,
      "Ġmind": 559,
      "Ġalso": 560,
      "lic": 561,
      "ĠO": 562,
      "Ġsus": 563,
      "Ġinfin": 564,
      "Ġsoci": 565,
      "Ġy": 566,
      "thod": 567,
      "ong": 568,
      "ĠCons": 569,
      "ke": 570,
      "Ġform": 571,
      "Ġimp": 572,
      "Ġliber": 573,
      "Ġsustain": 574,
      "ha": 575,
      "ru": 576,
      "ational": 577,
      "timate": 578,
      "Ġsyste": 579,
      "Ġexistence": 580,
      "age": 581,
      "ĠY": 582,
      "Ġhistorical": 583,
      "Ġnot": 584,
      "Ġthis": 585,
      "Ġinfinite": 586,
      "ab": 587,
      "iel": 588,
      "ater": 589,
      "Ġul": 590,
      "Ġemp": 591,
      "Ġres": 592,
      "Ġorder": 593,
      "Ġknow": 594,
      "ach": 595,
      "up": 596,
      "uman": 597,
      "Ġtra": 598,
      "harma": 599,
      "Ġultimate": 600,
      "ree": 601,
      "Ġmore": 602,
      "Ġnat": 603,
      "Ġmethod": 604,
      "ish": 605,
      "Ġflu": 606,
      "arm": 607,
      "Ġconsciousness": 608,
      "oga": 609,
      "Ġliberation": 610,
      "Ġsustaining": 611,
      "ĠYoga": 612,
      "ced": 613,
      "«à¤¸": 614,
      "¬à¤": 615,
      "°à¤": 616,
      "¸à¦": 617,
      "¹à¦ĵà¦¯": 618,
      "ħà¤": 619,
      "īà¤°": 620,
      "à¤®": 621,
      "à¤²": 622,
      "à¤¼": 623,
      "à¤Ĥ": 624,
      "à¤ķ": 625,
      "à¤Ľ": 626,
      "entical": 627,
      "à¦¬": 628,
      "à¦°": 629,
      "à¦²": 630,
      "à¦·": 631,
      "à¦¿": 632,
      "à¦Ł": 633,
      "à¦Ń": 634,
      "à¦¬à¦": 635,
      "Ġcess": 636,
      "Ġà¤§": 637,
      "Ġà¤¸": 638,
      "Ġà¤ľ": 639,
      "Ġà¤«à¤¸": 640,
      "Ġà¤¬à¤": 641,
      "Ġà¤°à¤": 642,
      "Ġà¤ħà¤": 643,
      "Ġà¤īà¤°": 644,
      "Ġeternal": 645,
      "Ġà¦¬": 646,
      "Ġà¦ĸ": 647,
      "Ġà¦Ń": 648,
      "Ġà¦¸à¦": 649,
      "Ġà¦¹à¦ĵà¦¯": 650,
      "à§ģ": 651,
      "à§ĥ": 652,
      "à§ĩ": 653,
      "à§ĭ": 654,
      "Ġà¤ķà¤°": 655,
      "à¥ĩà¤Ĥ": 656,
      "teous": 657,
      "à¤°à¤¤": 658,
      "Ġà¦Ĩà¦Ľ": 659,
      "Ġà¦Ĩà¦ľ": 660,
      "Ġà¦Ĩà¦¬à¦": 661,
      "ĠDharma": 662,
      "Ġsubstr": 663,
      "à¤µà¤°à¤¤": 664,
      "Ġidentical": 665,
      "ctuations": 666,
      "Ġrighteous": 667,
      "ĠAtman": 668,
      "ĠConsciousness": 669,
      "Ġfluctuations": 670,
      "à¦¬à¦¨": 671,
      "Ġcessation": 672,
      "Ġà¤«à¤¸à¤²": 673,
      "Ġà¤¬à¤¢": 674,
      "Ġà¤°à¤¹": 675,
      "Ġà¤ħà¤ļ": 676,
      "Ġà¦¸à¦®": 677,
      "Ġà¦Ĩà¦¬à¦¹": 678,
      "Ġsubstrate": 679,
      "als": 680,
      "Ġsome": 681,
      "ass": 682,
      "Ġhuman": 683,
      "ĠIndian": 684,
      "Ġuse": 685,
      "Ġscientific": 686,
      "ted": 687,
      "Ġund": 688,
      "act": 689,
      "ved": 690,
      "Ġca": 691,
      "conom": 692,
      "ck": 693,
      "ences": 694,
      "Ġnum": 695,
      "Ġgro": 696,
      "peci": 697,
      "Ġused": 698,
      "gan": 699,
      "over": 700,
      "out": 701,
      "Ġincreas": 702,
      "ame": 703,
      "Ġinto": 704,
      "Ġunder": 705,
      "ĠU": 706,
      "ari": 707,
      "arch": 708,
      "ni": 709,
      "Ġgener": 710,
      "Ġqu": 711,
      "ines": 712,
      "Ġhow": 713,
      "Ġbec": 714,
      "ions": 715,
      "Ġagriculture": 716,
      "Ġtheory": 717,
      "Ġev": 718,
      "vi": 719,
      "ĠL": 720,
      "cep": 721,
      "Ġworld": 722,
      "ctive": 723,
      "les": 724,
      "tici": 725,
      "Ġcrop": 726,
      "rough": 727,
      "Ġeconom": 728,
      "vers": 729,
      "try": 730,
      "rac": 731,
      "Ġwork": 732,
      "Ġagricultural": 733,
      "ject": 734,
      "we": 735,
      "Ġcul": 736,
      "ort": 737,
      "ĠAn": 738,
      "rib": 739,
      "eren": 740,
      "Ġmil": 741,
      "Ġreg": 742,
      "Ġmathematical": 743,
      "ĠThis": 744,
      "amp": 745,
      "ians": 746,
      "ub": 747,
      "ves": 748,
      "Ġbut": 749,
      "ide": 750,
      "ress": 751,
      "hys": 752,
      "Ġrese": 753,
      "Ġyear": 754,
      "cess": 755,
      "ens": 756,
      "Ġpre": 757,
      "Ġperi": 758,
      "Ġreli": 759,
      "ular": 760,
      "Ġge": 761,
      "rit": 762,
      "orm": 763,
      "uring": 764,
      "Ġbet": 765,
      "ĠCh": 766,
      "Ġone": 767,
      "Ġphilosoph": 768,
      "âĢĵ": 769,
      "Ġresearch": 770,
      "Ġperiod": 771,
      "Ġbas": 772,
      "Ġdef": 773,
      "Ġmany": 774,
      "ledge": 775,
      "ween": 776,
      "Ġes": 777,
      "Ġlar": 778,
      "igh": 779,
      "ting": 780,
      "yp": 781,
      "Ġover": 782,
      "Ġpop": 783,
      "Ġprac": 784,
      "cip": 785,
      "Ġcomm": 786,
      "),": 787,
      "ange": 788,
      "Ġwhe": 789,
      "irst": 790,
      "Ġinter": 791,
      "Ġfarm": 792,
      "Ġfirst": 793,
      "Ġexamp": 794,
      "Ġpl": 795,
      "cient": 796,
      "Ġmodern": 797,
      "Ġknowledge": 798,
      "able": 799,
      "pre": 800,
      "per": 801,
      "ĠAs": 802,
      "Ġmost": 803,
      "me": 804,
      "Ġbo": 805,
      "Ġsocial": 806,
      "Ġbetween": 807,
      "ak": 808,
      "ive": 809,
      "ving": 810,
      "titu": 811,
      "Ġthey": 812,
      "Ġper": 813,
      "Ġfiel": 814,
      "Ġter": 815,
      "ust": 816,
      "dition": 817,
      "ological": 818,
      "Ġexample": 819,
      "uc": 820,
      "ents": 821,
      "Ġdo": 822,
      "Ġdiff": 823,
      "ag": 824,
      "ded": 825,
      "ough": 826,
      "Ġra": 827,
      "Ġrel": 828,
      "Ġrep": 829,
      "Ġcoun": 830,
      "Ġabout": 831,
      "lish": 832,
      "Ġj": 833,
      "Ġear": 834,
      "Ġdec": 835,
      "ĠSo": 836,
      "cc": 837,
      "su": 838,
      "Ġoften": 839,
      "Ġland": 840,
      "ĠBC": 841,
      "ef": 842,
      "rans": 843,
      "Ġro": 844,
      "ined": 845,
      "Ġspeci": 846,
      "Ġthan": 847,
      "jor": 848,
      "ven": 849,
      "Ġpla": 850,
      "lob": 851,
      "lion": 852,
      "Ġbeen": 853,
      "Ġsour": 854,
      "Ġtech": 855,
      "Ġgeneral": 856,
      "gin": 857,
      "ys": 858,
      "Ġtim": 859,
      "Ġno": 860,
      "em": 861,
      "ty": 862,
      "ĊĠĠĠĠ": 863,
      "Ġpri": 864,
      "Ġtrans": 865,
      "sts": 866,
      "Ġthrough": 867,
      "resent": 868,
      "overn": 869,
      "Ġyears": 870,
      "ire": 871,
      "ĊĊ": 872,
      "Ġdisc": 873,
      "Ġinclude": 874,
      "Ġnatural": 875,
      "Ġpast": 876,
      "rap": 877,
      "Ġmay": 878,
      "Ġincluding": 879,
      "ities": 880,
      "tis": 881,
      "all": 882,
      "Ġnew": 883,
      "ĠAg": 884,
      "Ġgre": 885,
      "Ġconcep": 886,
      "ell": 887,
      "Ġfood": 888,
      "Ġexperi": 889,
      "Ġrelig": 890,
      "Ġgeome": 891,
      "Ġpractic": 892,
      "cent": 893,
      "des": 894,
      "ks": 895,
      "uth": 896,
      "uro": 897,
      "Ġne": 898,
      "Ġmajor": 899,
      "Ġanal": 900,
      "Ġsciences": 901,
      "Ġlike": 902,
      "000": 903,
      "bra": 904,
      "end": 905,
      "Ġsch": 906,
      "Ġdom": 907,
      "Ġproble": 908,
      "angu": 909,
      "Ġappro": 910,
      "Ġcaus": 911,
      "Ġdifferen": 912,
      "ial": 913,
      "ood": 914,
      "Ġ5": 915,
      "ĠJ": 916,
      "erv": 917,
      "gebra": 918,
      "Ġwho": 919,
      "Ġinflu": 920,
      "cipl": 921,
      "cul": 922,
      "ud": 923,
      "ĠV": 924,
      "Ġthem": 925,
      "Ġlangu": 926,
      "urope": 927,
      "ain": 928,
      "oun": 929,
      "Ġglob": 930,
      "Ġmain": 931,
      "lution": 932,
      "Ġacc": 933,
      "Ġfound": 934,
      "Ġpoli": 935,
      "ile": 936,
      "ran": 937,
      "Ġ3": 938,
      "Ġthese": 939,
      "Ġbi": 940,
      "tab": 941,
      "ĠMa": 942,
      "Ġconsid": 943,
      "cy": 944,
      "lass": 945,
      "iss": 946,
      "Ġsh": 947,
      "Ġphys": 948,
      "round": 949,
      "ited": 950,
      "omen": 951,
      "uld": 952,
      "ists": 953,
      "Ġgovern": 954,
      "vidence": 955,
      "Ġproduction": 956,
      "Ġgrow": 957,
      "ince": 958,
      "Ġcal": 959,
      "Ġpol": 960,
      "Ġinte": 961,
      "lim": 962,
      "Ġhistorians": 963,
      "ered": 964,
      "ĠGree": 965,
      "ĠHistor": 966,
      "Ġresul": 967,
      "Ġphilosophical": 968,
      "aw": 969,
      "vo": 970,
      "xt": 971,
      "estern": 972,
      "Ġpe": 973,
      "ating": 974,
      "Ġevidence": 975,
      "Ġareas": 976,
      "ĠFor": 977,
      "ety": 978,
      "Ġpopul": 979,
      "ual": 980,
      "Ġsp": 981,
      "Ġsha": 982,
      "Ġindi": 983,
      "Ġtw": 984,
      "Ġdes": 985,
      "Ġhad": 986,
      "iron": 987,
      "ĠSome": 988,
      "ĠEurope": 989,
      "Ġdeveloped": 990,
      "Ġtechn": 991,
      "fter": 992,
      "ral": 993,
      "ue": 994,
      "til": 995,
      "Ġthere": 996,
      "Ġemer": 997,
      "Ġhe": 998,
      "Ġhigh": 999,
      "Ġref": 1000,
      "Ġwhat": 1001,
      "Ġancient": 1002,
      "Ġsystem": 1003,
      "Ġunderst": 1004,
      "Ġbecame": 1005,
      "Ġlarge": 1006,
      "ren": 1007,
      "Ġsta": 1008,
      "Ġpers": 1009,
      "Ġmar": 1010,
      "liz": 1011,
      "ries": 1012,
      "Ġalgebra": 1013,
      "Ġvari": 1014,
      "ograp": 1015,
      "Ġboth": 1016,
      "ĠAgricul": 1017,
      "Ġgeometry": 1018,
      "ition": 1019,
      "ok": 1020,
      "ĠK": 1021,
      "ense": 1022,
      "ise": 1023,
      "omp": 1024,
      "ĠAl": 1025,
      "pect": 1026,
      "Ġide": 1027,
      "ized": 1028,
      "Ġobs": 1029,
      "Ġnumber": 1030,
      "Ġques": 1031,
      "Ġcrops": 1032,
      "Ġeconomic": 1033,
      "Ġemerg": 1034,
      "ie": 1035,
      "je": 1036,
      "viron": 1037,
      "Ġsig": 1038,
      "Ġwrit": 1039,
      "Ġtru": 1040,
      "ard": 1041,
      "Ġdist": 1042,
      "Ġtop": 1043,
      "Ġprovid": 1044,
      "ization": 1045,
      "Ġ201": 1046,
      "Ġmethods": 1047,
      "Ġfields": 1048,
      "Ġtwo": 1049,
      "ative": 1050,
      "bers": 1051,
      "cus": 1052,
      "ever": 1053,
      "if": 1054,
      "Ġout": 1055,
      "Ġcre": 1056,
      "ings": 1057,
      "rodu": 1058,
      "Ġduring": 1059,
      "Ġnon": 1060,
      "Ġconc": 1061,
      "Ġsupp": 1062,
      "Ġmean": 1063,
      "meric": 1064,
      "Ġcommon": 1065,
      "Ġpolitical": 1066,
      "Ġunderstand": 1067,
      "ap": 1068,
      "vest": 1069,
      "Ġ7": 1070,
      "Ġam": 1071,
      "Ġele": 1072,
      "Ġbegan": 1073,
      "Ġexam": 1074,
      "Ġonly": 1075,
      "ility": 1076,
      "Ġ18": 1077,
      "Ġmathematici": 1078,
      "Ġstate": 1079,
      "Ġfocus": 1080,
      "Ġpartic": 1081,
      "Ġ202": 1082,
      "ĠUn": 1083,
      "Ġearly": 1084,
      "Ġtime": 1085,
      "Ġglobal": 1086,
      "The": 1087,
      "gor": 1088,
      "min": 1089,
      "Ġinv": 1090,
      "Ġfe": 1091,
      "Ġwater": 1092,
      "ĠAmeric": 1093,
      "Ġcol": 1094,
      "ollow": 1095,
      "ĠEn": 1096,
      "Ġdiscipl": 1097,
      "ffect": 1098,
      "âĢĶ": 1099,
      "Ġdevelopment": 1100,
      "Ġtradition": 1101,
      "Ġbased": 1102,
      "Ġapproach": 1103,
      "Ġlanguage": 1104,
      "Ġpopulation": 1105,
      "ctiv": 1106,
      "fe": 1107,
      "ied": 1108,
      "our": 1109,
      "ures": 1110,
      "Ġsc": 1111,
      "Ġclass": 1112,
      "ors": 1113,
      "===": 1114,
      "Ġled": 1115,
      "Ġwhen": 1116,
      "ĠSci": 1117,
      "Ġstudi": 1118,
      "Ġnature": 1119,
      "Ġincreased": 1120,
      "nific": 1121,
      "Ġanalys": 1122,
      "Ġdifferent": 1123,
      "Ġmeaning": 1124,
      "ep": 1125,
      "of": 1126,
      "ool": 1127,
      "Ġ4": 1128,
      "Ġ6": 1129,
      "Ġaround": 1130,
      "Ġmed": 1131,
      "ically": 1132,
      "Ġpart": 1133,
      "Ġcontrib": 1134,
      "Ġchange": 1135,
      "ĠBCE": 1136,
      "ranch": 1137,
      "Ġlo": 1138,
      "Ġsince": 1139,
      "Ġequ": 1140,
      "Ġrec": 1141,
      "Ġthough": 1142,
      "Ġanim": 1143,
      "land": 1144,
      "ential": 1145,
      "ditions": 1146,
      "Ġtheories": 1147,
      "Ġobject": 1148,
      "Ġgroup": 1149,
      "Ġsignific": 1150,
      "other": 1151,
      "Ġtheore": 1152,
      "Ġins": 1153,
      "Ġfact": 1154,
      "Ġbranch": 1155,
      "Ġgra": 1156,
      "Ġlater": 1157,
      "Ġwhile": 1158,
      "Ġvi": 1159,
      "Ġenviron": 1160,
      "Ġarg": 1161,
      "Ġgovernment": 1162,
      "tries": 1163,
      "ason": 1164,
      "urther": 1165,
      "Ġnor": 1166,
      "ĠCE": 1167,
      "Ġset": 1168,
      "Ġend": 1169,
      "soci": 1170,
      "Ġsystems": 1171,
      "Ġemplo": 1172,
      "Ġmillion": 1173,
      "ublic": 1174,
      "Ġdefin": 1175,
      "Ġestab": 1176,
      "Ġestablish": 1177,
      "form": 1178,
      "ose": 1179,
      "ock": 1180,
      "Ġup": 1181,
      "Ġaut": 1182,
      "rect": 1183,
      "ording": 1184,
      "Ġind": 1185,
      "Ġfore": 1186,
      "Ġfollow": 1187,
      "Ġwe": 1188,
      "use": 1189,
      "vel": 1190,
      "rigin": 1191,
      "Ġmade": 1192,
      "Ġlead": 1193,
      "Ġschool": 1194,
      "Ġpolic": 1195,
      "ĠGreek": 1196,
      "Ġpeop": 1197,
      "Ġindivid": 1198,
      "Ġobserv": 1199,
      "Ġparticular": 1200,
      "Ġsignificant": 1201,
      "gest": 1202,
      "ivers": 1203,
      "miss": 1204,
      "ning": 1205,
      "ould": 1206,
      "put": 1207,
      "rest": 1208,
      "estic": 1209,
      "Ġcri": 1210,
      "Ġfa": 1211,
      "Ġreason": 1212,
      "Ġassoci": 1213,
      "Ġorgan": 1214,
      "ĠSt": 1215,
      "ctions": 1216,
      "Ġval": 1217,
      "Ġmodel": 1218,
      "Ġimport": 1219,
      "Ġnumbers": 1220,
      "Ġterm": 1221,
      "Ġrelated": 1222,
      "limate": 1223,
      "Ġmathematicians": 1224,
      "Ġanalysis": 1225,
      "ack": 1226,
      "gra": 1227,
      "king": 1228,
      "one": 1229,
      "erti": 1230,
      "Ġwell": 1231,
      "ards": 1232,
      "ĠIs": 1233,
      "Ġass": 1234,
      "matic": 1235,
      "Ġprocess": 1236,
      "ade": 1237,
      "Ġ200": 1238,
      "Ġcontro": 1239,
      "Ġadv": 1240,
      "Ġevents": 1241,
      "Ġinterpre": 1242,
      "Ġfarming": 1243,
      "ĠAsia": 1244,
      "Ġpeople": 1245,
      "ious": 1246,
      "mo": 1247,
      "thes": 1248,
      "Ġorigin": 1249,
      "alth": 1250,
      "any": 1251,
      "Ġmat": 1252,
      "Ġbro": 1253,
      "Ġnar": 1254,
      "Ġproof": 1255,
      "Ġlife": 1256,
      "ĠHin": 1257,
      "ĠWestern": 1258,
      "Ġcountries": 1259,
      "Ġsources": 1260,
      "Ġconcepts": 1261,
      "Ġdomestic": 1262,
      "Ġproblems": 1263,
      "vestock": 1264,
      "Ġview": 1265,
      "Ġemploy": 1266,
      "itions": 1267,
      "Ġlog": 1268,
      "Ġlow": 1269,
      "ins": 1270,
      "Ġpos": 1271,
      "educ": 1272,
      "Ġway": 1273,
      "Ġtre": 1274,
      "its": 1275,
      "Ġbeli": 1276,
      "Ġlong": 1277,
      "ĠBy": 1278,
      "ĠThey": 1279,
      "Ġsoil": 1280,
      "Ġintrodu": 1281,
      "ĠOther": 1282,
      "Ġcultural": 1283,
      "Ġregion": 1284,
      "Ġwhether": 1285,
      "Ġrole": 1286,
      "Ġspecific": 1287,
      "Ġsource": 1288,
      "ĠMathema": 1289,
      "jective": 1290,
      "Ġinvol": 1291,
      "Ġargu": 1292,
      "has": 1293,
      "ne": 1294,
      "ris": 1295,
      "uch": 1296,
      "val": 1297,
      "ina": 1298,
      "tig": 1299,
      "eng": 1300,
      "Ġocc": 1301,
      "ision": 1302,
      "ese": 1303,
      "Ġpes": 1304,
      "Ġpresent": 1305,
      "Ġwide": 1306,
      "Ġallow": 1307,
      "Ġusing": 1308,
      "Ġcomple": 1309,
      "anges": 1310,
      "Ġpractices": 1311,
      "Ġinterest": 1312,
      "ĠAgriculture": 1313,
      "Ġquestions": 1314,
      "Ġobjects": 1315,
      "cu": 1316,
      "ims": 1317,
      "rin": 1318,
      "ron": 1319,
      "ss": 1320,
      "ually": 1321,
      "Ġafter": 1322,
      "ised": 1323,
      "Ġcas": 1324,
      "Ġpres": 1325,
      "Ġmin": 1326,
      "ars": 1327,
      "ĠAr": 1328,
      "Ġgo": 1329,
      "ill": 1330,
      "Ġarea": 1331,
      "Ġapplic": 1332,
      "Ġformal": 1333,
      "Ġempir": 1334,
      "Ġincreasing": 1335,
      "ĠChina": 1336,
      "ĠSouth": 1337,
      "Ġdesc": 1338,
      "Ġbranches": 1339,
      "Ġassociated": 1340,
      "Ġbroad": 1341,
      "are": 1342,
      "ffic": 1343,
      "Ġ9": 1344,
      "Ġeduc": 1345,
      "erg": 1346,
      "Ġcor": 1347,
      "Ġcur": 1348,
      "Ġpred": 1349,
      "Ġbre": 1350,
      "Ġeth": 1351,
      "Ġrequ": 1352,
      "Ġconte": 1353,
      "cted": 1354,
      "Ġago": 1355,
      "times": 1356,
      "Ġcenturies": 1357,
      "stru": 1358,
      "Ġplan": 1359,
      "ĊĠĠĠĠĠĠĠĠ": 1360,
      "Ġconcern": 1361,
      "Ġthought": 1362,
      "Ġautom": 1363,
      "cal": 1364,
      "fric": 1365,
      "phys": 1366,
      "pend": 1367,
      "xts": 1368,
      "Ġsur": 1369,
      "Ġclo": 1370,
      "Ġclimate": 1371,
      "ata": 1372,
      "Ġta": 1373,
      "Ġtyp": 1374,
      "Ġhel": 1375,
      "stra": 1376,
      "cts": 1377,
      "Ġforms": 1378,
      "Ġlab": 1379,
      "Ġlaw": 1380,
      "verse": 1381,
      "ĠEmp": 1382,
      "fication": 1383,
      "Ġstar": 1384,
      "ign": 1385,
      "Ġmove": 1386,
      "ĠRe": 1387,
      "Ġprim": 1388,
      "cing": 1389,
      "por": 1390,
      "va": 1391,
      "ining": 1392,
      "ons": 1393,
      "ering": 1394,
      "isation": 1395,
      "Ġci": 1396,
      "ances": 1397,
      "ory": 1398,
      "Ġfurther": 1399,
      "Ġhis": 1400,
      "Ġissu": 1401,
      "cial": 1402,
      "lear": 1403,
      "ĠAfric": 1404,
      "Ġlit": 1405,
      "very": 1406,
      "iry": 1407,
      "sequ": 1408,
      "ild": 1409,
      "Ġlivestock": 1410,
      "ĠPl": 1411,
      "Ġcentral": 1412,
      "Ġstru": 1413,
      "Ġincludes": 1414,
      "ĠWor": 1415,
      "Ġimpro": 1416,
      "Ġsometimes": 1417,
      "ĠUS": 1418,
      "Ġwhere": 1419,
      "Ġplant": 1420,
      "pread": 1421,
      "Ġreligious": 1422,
      "Ġconsidered": 1423,
      "Ġvarious": 1424,
      "ograph": 1425,
      "Ġemerged": 1426,
      "Ġtruth": 1427,
      "ertiliz": 1428,
      "Ġnarra": 1429,
      "Ġeducation": 1430,
      "eties": 1431,
      "ful": 1432,
      "gress": 1433,
      "hen": 1434,
      "tle": 1435,
      "Ġlos": 1436,
      "Ġser": 1437,
      "Ġsense": 1438,
      "Ġpow": 1439,
      "Ġpublic": 1440,
      "eds": 1441,
      "Ġinqu": 1442,
      "Ġinves": 1443,
      "Ġfar": 1444,
      "Ġtak": 1445,
      "uss": 1446,
      "Ġher": 1447,
      "Ġredu": 1448,
      "Ġreso": 1449,
      "ides": 1450,
      "Ġaspect": 1451,
      "taphys": 1452,
      "Ġart": 1453,
      "ĠThese": 1454,
      "Ġscientists": 1455,
      "Ġhumans": 1456,
      "ĠAncient": 1457,
      "titution": 1458,
      "Ġfield": 1459,
      "ages": 1460,
      "ĠHistory": 1461,
      "Ġunderstanding": 1462,
      "ĠUnited": 1463,
      "Ġclassical": 1464,
      "Ġstudies": 1465,
      "Ġimportant": 1466,
      "ĠHindu": 1467,
      "Ġdomesticated": 1468,
      "Ġinvestig": 1469,
      "ause": 1470,
      "bic": 1471,
      "eas": 1472,
      "ili": 1473,
      "len": 1474,
      "mb": 1475,
      "Ġchar": 1476,
      "Ġpur": 1477,
      "Ġfertiliz": 1478,
      "Ġhyp": 1479,
      "Ġrema": 1480,
      "ligh": 1481,
      "ĠTe": 1482,
      "ately": 1483,
      "utri": 1484,
      "Ġ16": 1485,
      "Ġinform": 1486,
      "Ġenc": 1487,
      "ĠHow": 1488,
      "ize": 1489,
      "Ġcontin": 1490,
      "tives": 1491,
      "Ġdevelopments": 1492,
      "ability": 1493,
      "Ġemphas": 1494,
      "Ġknown": 1495,
      "Ġtraditions": 1496,
      "Ġrepresent": 1497,
      "Ġproblem": 1498,
      "ounts": 1499,
      "Ġphysics": 1500,
      "volution": 1501,
      "Ġwriting": 1502,
      "Ġestablished": 1503,
      "Ġcontrol": 1504,
      "Ġbelief": 1505,
      "Ġresour": 1506,
      "50": 1507,
      "day": 1508,
      "fore": 1509,
      "gen": 1510,
      "wn": 1511,
      "xi": 1512,
      "tial": 1513,
      "Ġsame": 1514,
      "ord": 1515,
      "Ġwomen": 1516,
      "Ġrely": 1517,
      "lied": 1518,
      "rip": 1519,
      "Ġconf": 1520,
      "idd": 1521,
      "Ġexten": 1522,
      "thern": 1523,
      "ternational": 1524,
      "Ġsee": 1525,
      "Ġsever": 1526,
      "Ġris": 1527,
      "Ġteach": 1528,
      "Ġlevel": 1529,
      "Ġbasic": 1530,
      "Ġdiscover": 1531,
      "Ġinfluence": 1532,
      "Ġresults": 1533,
      "Ġstand": 1534,
      "Ġcontribut": 1535,
      "Ġenvironmental": 1536,
      "Ġindividual": 1537,
      "ademic": 1538,
      "ergy": 1539,
      "ĠWorld": 1540,
      "Ġloss": 1541,
      "Ġinquiry": 1542,
      "Ġhypo": 1543,
      "ĠHowever": 1544,
      "ires": 1545,
      "ible": 1546,
      "lus": 1547,
      "mm": 1548,
      "ned": 1549,
      "oli": 1550,
      "pos": 1551,
      "Ġ8": 1552,
      "Ġenti": 1553,
      "Ġaffect": 1554,
      "Ġoper": 1555,
      "Ġsa": 1556,
      "ature": 1557,
      "Ġmul": 1558,
      "ingu": 1559,
      "ross": 1560,
      "ased": 1561,
      "itary": 1562,
      "urb": 1563,
      "ult": 1564,
      "rial": 1565,
      "ĠBud": 1566,
      "illion": 1567,
      "Ġ17": 1568,
      "ĠThere": 1569,
      "Ġlim": 1570,
      "Ġhapp": 1571,
      "ĠNew": 1572,
      "Ġ199": 1573,
      "imil": 1574,
      "ctual": 1575,
      "ields": 1576,
      "Ġincrease": 1577,
      "Ġworks": 1578,
      "Ġregions": 1579,
      "vention": 1580,
      "Ġdomin": 1581,
      "Ġphysical": 1582,
      "Ġgrowth": 1583,
      "Ġcalled": 1584,
      "Ġperspe": 1585,
      "Ġtopics": 1586,
      "Ġdisciplines": 1587,
      "ĠEmpire": 1588,
      "Ġcharact": 1589,
      "iddle": 1590,
      "Ġseveral": 1591,
      "Ġhypothes": 1592,
      "ĠBudd": 1593,
      "AO": 1594,
      "ace": 1595,
      "ger": 1596,
      "par": 1597,
      "xim": 1598,
      "ze": 1599,
      "Ġ'": 1600,
      "Ġaw": 1601,
      "onom": 1602,
      "ale": 1603,
      "Ġsol": 1604,
      "anti": 1605,
      "Ġprin": 1606,
      "Ġinde": 1607,
      "Ġwould": 1608,
      "Ġbillion": 1609,
      "chan": 1610,
      "ĠAcc": 1611,
      "Ġbeing": 1612,
      "ĠBri": 1613,
      "Ġ15": 1614,
      "old": 1615,
      "Ġincor": 1616,
      "ĠMany": 1617,
      "Ġsecon": 1618,
      "Ġacademic": 1619,
      "Ġexpla": 1620,
      "ĠNor": 1621,
      "Ġidenti": 1622,
      "Ġtext": 1623,
      "Ġcontent": 1624,
      "Ġgene": 1625,
      "pecially": 1626,
      "Ġcultiv": 1627,
      "Ġmillen": 1628,
      "Ġpopular": 1629,
      "Ġpercent": 1630,
      "ĊĠĠĠĠĠĠ": 1631,
      "Ġprime": 1632,
      "Ġtransform": 1633,
      "Ġconsider": 1634,
      "Ġcalcul": 1635,
      "Ġshap": 1636,
      "Ġamong": 1637,
      "Ġgroups": 1638,
      "Ġpower": 1639,
      "taphysics": 1640,
      "Ġinformation": 1641,
      "Ġsecond": 1642,
      "\",": 1643,
      "ath": 1644,
      "dis": 1645,
      "fied": 1646,
      "ib": 1647,
      "ip": 1648,
      "to": 1649,
      "though": 1650,
      "Ġcla": 1651,
      "eding": 1652,
      "Ġfun": 1653,
      "Ġfree": 1654,
      "arly": 1655,
      "row": 1656,
      "ently": 1657,
      "Ġreal": 1658,
      "Ġcondu": 1659,
      "ously": 1660,
      "Ġproper": 1661,
      "table": 1662,
      "Ġ10": 1663,
      "ĠMe": 1664,
      "ĠDuring": 1665,
      "ologies": 1666,
      "Ġeng": 1667,
      "Ġexpress": 1668,
      "Ġrul": 1669,
      "ĠFood": 1670,
      "Ġarri": 1671,
      "Ġparts": 1672,
      "Ġ196": 1673,
      "Ġuntil": 1674,
      "Ġabstra": 1675,
      "Ġpost": 1676,
      "Ġsocieties": 1677,
      "Ġformul": 1678,
      "Ġsystematic": 1679,
      "Ġcap": 1680,
      "ticides": 1681,
      "Ġcommun": 1682,
      "Ġdocu": 1683,
      "Ġplace": 1684,
      "Ġgreat": 1685,
      "ĠEuropean": 1686,
      "ĠEng": 1687,
      "Ġtraditional": 1688,
      "ctivity": 1689,
      "Ġanimal": 1690,
      "Ġpolicy": 1691,
      "Ġreasoning": 1692,
      "ĠIsla": 1693,
      "Ġinterpret": 1694,
      "Ġempirical": 1695,
      "Ġdescrib": 1696,
      "Ġclose": 1697,
      "Ġresources": 1698,
      "urban": 1699,
      "Ġindepend": 1700,
      "ared": 1701,
      "gyp": 1702,
      "ton": 1703,
      "uter": 1704,
      "Ġurban": 1705,
      "Ġari": 1706,
      "Ġop": 1707,
      "eral": 1708,
      "Ġinn": 1709,
      "Ġfam": 1710,
      "atures": 1711,
      "Ġmuch": 1712,
      "Ġdata": 1713,
      "ital": 1714,
      "Ġrela": 1715,
      "oms": 1716,
      "ticism": 1717,
      "chie": 1718,
      "Ġnutri": 1719,
      "rig": 1720,
      "Ġga": 1721,
      "Ġext": 1722,
      "tures": 1723,
      "hip": 1724,
      "ĠEgyp": 1725,
      "Ġmechan": 1726,
      "ĠPhilosop": 1727,
      "Ġactiv": 1728,
      "Ġaccess": 1729,
      "Ġdiv": 1730,
      "Ġdirect": 1731,
      "Ġarch": 1732,
      "Ġunivers": 1733,
      "Ġadop": 1734,
      "Ġquanti": 1735,
      "Ġeconomics": 1736,
      "Ġculture": 1737,
      "ĠAnother": 1738,
      "Ġphilosophers": 1739,
      "Ġestim": 1740,
      "Ġfarmers": 1741,
      "tish": 1742,
      "Ġcaused": 1743,
      "Ġmainly": 1744,
      "rent": 1745,
      "Ġperson": 1746,
      "ography": 1747,
      "Ġideas": 1748,
      "Ġprovide": 1749,
      "Ġsupport": 1750,
      "Ġcolle": 1751,
      "Ġdiscipline": 1752,
      "ĠScienti": 1753,
      "Ġschools": 1754,
      "mission": 1755,
      "ffici": 1756,
      "Ġlaws": 1757,
      "henomen": 1758,
      "ĠBuddh": 1759,
      "ĠAccording": 1760,
      "ac": 1761,
      "cur": 1762,
      "fy": 1763,
      "ration": 1764,
      "yn": 1765,
      "Ġap": 1766,
      "Ġachie": 1767,
      "ened": 1768,
      "ertain": 1769,
      "istic": 1770,
      "Ġpat": 1771,
      "Ġfra": 1772,
      "atin": 1773,
      "Ġback": 1774,
      "Ġdri": 1775,
      "Ġtot": 1776,
      "istan": 1777,
      "Ġnational": 1778,
      "Ġthree": 1779,
      "ĠAra": 1780,
      "Ġmake": 1781,
      "Ġless": 1782,
      "term": 1783,
      "Ġcour": 1784,
      "Ġann": 1785,
      "Ġanother": 1786,
      "Ġ====": 1787,
      "hile": 1788,
      "temp": 1789,
      "tically": 1790,
      "Ġconsist": 1791,
      "ĠPro": 1792,
      "Ġstr": 1793,
      "Ġstates": 1794,
      "Ġenergy": 1795,
      "ĠHe": 1796,
      "Ġexpl": 1797,
      "Ġdiseas": 1798,
      "Ġke": 1799,
      "Ġrigor": 1800,
      "Ġif": 1801,
      "Ġchanges": 1802,
      "Ġcomputer": 1803,
      "nium": 1804,
      "ĠLatin": 1805,
      "Ġespecially": 1806,
      "metic": 1807,
      "ustrial": 1808,
      "Ġspecies": 1809,
      "Ġpractice": 1810,
      "Ġschol": 1811,
      "Ġtrue": 1812,
      "Ġdistin": 1813,
      "Ġapproaches": 1814,
      "Ġanimals": 1815,
      "Ġdefinitions": 1816,
      "ĠStates": 1817,
      "Ġintroduced": 1818,
      "Ġcomplex": 1819,
      "Ġminist": 1820,
      "Ġhelp": 1821,
      "ĠAfrica": 1822,
      "Ġliter": 1823,
      "Ġoperations": 1824,
      "ĠEnglish": 1825,
      "acy": 1826,
      "dation": 1827,
      "ft": 1828,
      "for": 1829,
      "ges": 1830,
      "ix": 1831,
      "ov": 1832,
      "pist": 1833,
      "tes": 1834,
      "utions": 1835,
      "ĊĠĠ": 1836,
      "Ġer": 1837,
      "Ġent": 1838,
      "ĠâĢĵ": 1839,
      "thmetic": 1840,
      "Ġaims": 1841,
      "ination": 1842,
      "Ġthen": 1843,
      "enced": 1844,
      "alu": 1845,
      "Ġste": 1846,
      "Ġche": 1847,
      "Ġoff": 1848,
      "Ġpure": 1849,
      "Ġphenomen": 1850,
      "Ġmor": 1851,
      "Ġevery": 1852,
      "ley": 1853,
      "Ġthin": 1854,
      "Ġthose": 1855,
      "Ġbegin": 1856,
      "odern": 1857,
      "Ġdegra": 1858,
      "ficial": 1859,
      "Ġusually": 1860,
      "Ġmetaphysics": 1861,
      "Ġvar": 1862,
      "Ġrational": 1863,
      "ĠFAO": 1864,
      "Ġartic": 1865,
      "ĠCongress": 1866,
      "Ġcomput": 1867,
      "Ġproducts": 1868,
      "Ġapplied": 1869,
      "Ġaddition": 1870,
      "Ġtrade": 1871,
      "inese": 1872,
      "Ġevalu": 1873,
      "viliz": 1874,
      "Ġlargest": 1875,
      "Ġpractical": 1876,
      "Ġterms": 1877,
      "Ġrather": 1878,
      "Ġrelations": 1879,
      "Ġjus": 1880,
      "Ġplay": 1881,
      "Ġreligion": 1882,
      "till": 1883,
      "Ġalgebraic": 1884,
      "Ġemergence": 1885,
      "Ġcommonly": 1886,
      "ffects": 1887,
      "ĠScience": 1888,
      "Ġequations": 1889,
      "Ġlogic": 1890,
      "ĠMathematics": 1891,
      "Ġapplications": 1892,
      "Ġpredic": 1893,
      "Ġethics": 1894,
      "ĠRevolution": 1895,
      "vail": 1896,
      "Ġissues": 1897,
      "Ġnarratives": 1898,
      "ĠBritish": 1899,
      "Ġincorpor": 1900,
      "Ġproperties": 1901,
      "Ġarithmetic": 1902,
      "Ġappe": 1903,
      "pistem": 1904,
      "20": 1905,
      "av": 1906,
      "atic": 1907,
      "fess": 1908,
      "histor": 1909,
      "ither": 1910,
      "ket": 1911,
      "lar": 1912,
      "line": 1913,
      "ost": 1914,
      "side": 1915,
      "wor": 1916,
      "yle": 1917,
      "yste": 1918,
      "Ġve": 1919,
      "Ġric": 1920,
      "Ġaxi": 1921,
      "inary": 1922,
      "tian": 1923,
      "rete": 1924,
      "Ġown": 1925,
      "Ġspe": 1926,
      "Ġcar": 1927,
      "ories": 1928,
      "ice": 1929,
      "Ġinst": 1930,
      "ats": 1931,
      "atural": 1932,
      "Ġec": 1933,
      "ury": 1934,
      "Ġgu": 1935,
      "cture": 1936,
      "ope": 1937,
      "Ġcould": 1938,
      "Ġprofess": 1939,
      "Ġwithin": 1940,
      "ĠSe": 1941,
      "Ġsele": 1942,
      "erial": 1943,
      "Ġdivid": 1944,
      "Ġrural": 1945,
      "Ġparad": 1946,
      "cont": 1947,
      "imal": 1948,
      "Ġmanage": 1949,
      "Ġchall": 1950,
      "Ġobjective": 1951,
      "Ġresist": 1952,
      "niqu": 1953,
      "Ġbecome": 1954,
      "Ġbecause": 1955,
      "versity": 1956,
      "Ġmilitary": 1957,
      "ĠChinese": 1958,
      "ucli": 1959,
      "uclear": 1960,
      "Ġearli": 1961,
      "Ġconcept": 1962,
      "Ġexperience": 1963,
      "Ġaccounts": 1964,
      "Ġgrowing": 1965,
      "Ġtechnology": 1966,
      "Ġhealth": 1967,
      "ĠAgricultural": 1968,
      "Ġcreated": 1969,
      "Ġinstitu": 1970,
      "Ġfollowing": 1971,
      "Ġleading": 1972,
      "Ġobservation": 1973,
      "Ġobservations": 1974,
      "Ġvalue": 1975,
      "Ġposs": 1976,
      "Ġinvolves": 1977,
      "Ġoccur": 1978,
      "Ġwidely": 1979,
      "Ġbreeding": 1980,
      "Ġtypically": 1981,
      "Ġmovement": 1982,
      "Ġaspects": 1983,
      "Ġmillennium": 1984,
      "Ġinnov": 1985,
      "Ġtotal": 1986,
      "dra": 1987,
      "ily": 1988,
      "ler": 1989,
      "ling": 1990,
      "lit": 1991,
      "oc": 1992,
      "rast": 1993,
      "sid": 1994,
      "Äģ": 1995,
      "Ġastr": 1996,
      "Ġavail": 1997,
      "inent": 1998,
      "iness": 1999,
      "ency": 2000,
      "Ġold": 2001,
      "Ġsing": 2002,
      "anism": 2003,
      "Ġfind": 2004,
      "Ġfig": 2005,
      "Ġwild": 2006,
      "Ġtur": 2007,
      "ĠAfter": 2008,
      "Ġgi": 2009,
      "Ġcontain": 2010,
      "Ġconsequ": 2011,
      "ctor": 2012,
      "mentation": 2013,
      "ouse": 2014,
      "Ġprob": 2015,
      "ĠComp": 2016,
      "Ġdeb": 2017,
      "Ġdep": 2018,
      "Ġanti": 2019,
      "Ġmem": 2020,
      "Ġmeas": 2021,
      "Ġcomb": 2022,
      "Ġword": 2023,
      "Ġsubject": 2024,
      "Ġrate": 2025,
      "ĠWar": 2026,
      "Ġ194": 2027,
      "Ġtexts": 2028,
      "Ġuni": 2029,
      "Ġattemp": 2030,
      "ĠRen": 2031,
      "Ġproductivity": 2032,
      "Ġleg": 2033,
      "Ġeconomy": 2034,
      "ensive": 2035,
      "Ġprevi": 2036,
      "Ġdefined": 2037,
      "akistan": 2038,
      "Ġtechniqu": 2039,
      "Ġtimes": 2040,
      "Ġanaly": 2041,
      "Ġapproxim": 2042,
      "Ġcause": 2043,
      "Ġ50": 2044,
      "Ġshow": 2045,
      "ompass": 2046,
      "Ġquestion": 2047,
      "Ġtopic": 2048,
      "Ġexamines": 2049,
      "Ġstatement": 2050,
      "Ġ2021": 2051,
      "Ġfeatures": 2052,
      "ĠAmerica": 2053,
      "Ġscope": 2054,
      "Ġstudied": 2055,
      "Ġcontributions": 2056,
      "Ġforest": 2057,
      "Ġpolicies": 2058,
      "Ġarguments": 2059,
      "Ġcaste": 2060,
      "Ġincreasingly": 2061,
      "Ġautomation": 2062,
      "Ġlabor": 2063,
      "Ġprimary": 2064,
      "Ġciviliz": 2065,
      "Ġfertilizers": 2066,
      "Ġencompass": 2067,
      "Ġbeliefs": 2068,
      "ĠNorth": 2069,
      "Ġclosely": 2070,
      "Ġactivities": 2071,
      "Ġminister": 2072,
      "Ġdegradation": 2073,
      "Ġjusti": 2074,
      "Ġprofession": 2075,
      "Ġmanagement": 2076,
      "Ind": 2077,
      "ati": 2078,
      "kh": 2079,
      "mon": 2080,
      "pla": 2081,
      "sive": 2082,
      "ump": 2083,
      "yth": 2084,
      "inc": 2085,
      "alf": 2086,
      "Ġsm": 2087,
      "Ġspread": 2088,
      "Ġsimil": 2089,
      "esthe": 2090,
      "Ġcertain": 2091,
      "icine": 2092,
      "Ġinternational": 2093,
      "Ġflo": 2094,
      "Ġwar": 2095,
      "Ġwestern": 2096,
      "Ġeffects": 2097,
      "ash": 2098,
      "ustry": 2099,
      "Ġdance": 2100,
      "Ġhalf": 2101,
      "cience": 2102,
      "Ġtoday": 2103,
      "omin": 2104,
      "oman": 2105,
      "Ġnow": 2106,
      "ried": 2107,
      "Ġconditions": 2108,
      "Ġassu": 2109,
      "Ġbefore": 2110,
      "odivers": 2111,
      "Ġlate": 2112,
      "Ġlast": 2113,
      "ters": 2114,
      "elle": 2115,
      "Ġcover": 2116,
      "mptions": 2117,
      "Ġwithout": 2118,
      "tative": 2119,
      "iab": 2120,
      "ĠEx": 2121,
      "Ġsouth": 2122,
      "ĠMar": 2123,
      "Ġcommer": 2124,
      "ĠPakistan": 2125,
      "ĠDe": 2126,
      "ĠDes": 2127,
      "Ġaccep": 2128,
      "Ġacross": 2129,
      "Ġexplo": 2130,
      "Ġrise": 2131,
      "ĠNe": 2132,
      "ĠNational": 2133,
      "ĠOne": 2134,
      "Ġsociety": 2135,
      "Ġimpact": 2136,
      "ield": 2137,
      "Ġcare": 2138,
      "ĠLe": 2139,
      "ight": 2140,
      "Ġrelation": 2141,
      "Ġcountry": 2142,
      "Ġgreater": 2143,
      "Ġreligions": 2144,
      "Ġinteg": 2145,
      "Ġresult": 2146,
      "Ġtechnologies": 2147,
      "Ġrefle": 2148,
      "Ġstatis": 2149,
      "Ġwritten": 2150,
      "Ġdistingu": 2151,
      "ctives": 2152,
      "ourn": 2153,
      "Ġlocal": 2154,
      "Ġnorth": 2155,
      "Ġnorthern": 2156,
      "Ġindustry": 2157,
      "missions": 2158,
      "Ġrequire": 2159,
      "Ġplants": 2160,
      "Ġtaken": 2161,
      "Ġhappened": 2162,
      "Ġprincip": 2163,
      "Ġcalculus": 2164,
      "ĠIslamic": 2165,
      "Ġstrong": 2166,
      "Ġkey": 2167,
      "Ġinstance": 2168,
      "continent": 2169,
      "Ġastronom": 2170,
      "Ġassumptions": 2171,
      "odiversity": 2172,
      "Ġdistinguish": 2173,
      "ae": 2174,
      "aiss": 2175,
      "bo": 2176,
      "han": 2177,
      "less": 2178,
      "lated": 2179,
      "long": 2180,
      "mit": 2181,
      "nect": 2182,
      "ota": 2183,
      "rgan": 2184,
      "uci": 2185,
      "ule": 2186,
      "uals": 2187,
      "wards": 2188,
      "Ġ0": 2189,
      "Ġir": 2190,
      "tip": 2191,
      "onial": 2192,
      "theast": 2193,
      "Ġcame": 2194,
      "orts": 2195,
      "ices": 2196,
      "Ġpot": 2197,
      "Ġinput": 2198,
      "Ġmen": 2199,
      "Ġtest": 2200,
      "arded": 2201,
      "Ġeas": 2202,
      "Ġeither": 2203,
      "Ġtool": 2204,
      "mentary": 2205,
      "Ġexch": 2206,
      "Ġsug": 2207,
      "ĠCent": 2208,
      "Ġalong": 2209,
      "ird": 2210,
      "Ġany": 2211,
      "Ġ11": 2212,
      "Ġ14": 2213,
      "olved": 2214,
      "ĠMes": 2215,
      "Ġuses": 2216,
      "Ġagain": 2217,
      "Ġconsump": 2218,
      "Ġacqu": 2219,
      "Ġfour": 2220,
      "Ġexpans": 2221,
      "Ġ198": 2222,
      "tenment": 2223,
      "Ġright": 2224,
      "Ġpoly": 2225,
      "ĠOrgan": 2226,
      "arming": 2227,
      "ticide": 2228,
      "ensus": 2229,
      "Ġprec": 2230,
      "Ġdoes": 2231,
      "Ġjourn": 2232,
      "Ġdiscuss": 2233,
      "Ġexperiments": 2234,
      "Ġneed": 2235,
      "Ġwhose": 2236,
      "Ġinfluential": 2237,
      "Ġinfluenced": 2238,
      "Ġlanguages": 2239,
      "Ġshould": 2240,
      "Ġtechnological": 2241,
      "Ġvariety": 2242,
      "Ġtheoretical": 2243,
      "Ġtheorems": 2244,
      "Ġdefinition": 2245,
      "Ġpesticides": 2246,
      "Ġinterested": 2247,
      "ĠArist": 2248,
      "Ġtax": 2249,
      "Ġinvestigates": 2250,
      "lightenment": 2251,
      "Ġcontinu": 2252,
      "Ġdiscovery": 2253,
      "Ġentities": 2254,
      "discipl": 2255,
      "Ġconduct": 2256,
      "Ġengine": 2257,
      "Ġabstract": 2258,
      "Ġestimated": 2259,
      "ĠBuddhism": 2260,
      "Ġpattern": 2261,
      "Ġchem": 2262,
      "Ġphenomena": 2263,
      "Ġarticle": 2264,
      "pistemology": 2265,
      "Ġdivided": 2266,
      "Ġparadig": 2267,
      "Ġinstitutions": 2268,
      "Ġavailable": 2269,
      "Ġsingle": 2270,
      "ĠRenaiss": 2271,
      "ellectual": 2272,
      "Ġconsumption": 2273,
      "ĠRenaissance": 2274,
      "19": 2275,
      "500": 2276,
      "In": 2277,
      "based": 2278,
      "dress": 2279,
      "fety": 2280,
      "fuci": 2281,
      "ification": 2282,
      "ked": 2283,
      "know": 2284,
      "mar": 2285,
      "ph": 2286,
      "pose": 2287,
      "ych": 2288,
      "Ġess": 2289,
      "ĭ,": 2290,
      "thing": 2291,
      "Ġaver": 2292,
      "int": 2293,
      "reat": 2294,
      "ising": 2295,
      "Ġsaw": 2296,
      "Ġstill": 2297,
      "Ġcate": 2298,
      "Ġcris": 2299,
      "ane": 2300,
      "icism": 2301,
      "Ġfew": 2302,
      "Ġmon": 2303,
      "Ġbus": 2304,
      "Ġeach": 2305,
      "Ġemissions": 2306,
      "astic": 2307,
      "Ġrele": 2308,
      "lia": 2309,
      "lig": 2310,
      "Ġnuclear": 2311,
      "Ġgas": 2312,
      "Ġgood": 2313,
      "mand": 2314,
      "Ġmach": 2315,
      "Ġexternal": 2316,
      "ĠBe": 2317,
      "ĠIndus": 2318,
      "ersian": 2319,
      "ades": 2320,
      "adem": 2321,
      "ĠEast": 2322,
      "ĠEucli": 2323,
      "ĠMugh": 2324,
      "ĠMiddle": 2325,
      "Ġcompe": 2326,
      "Ġconstitution": 2327,
      "Ġvast": 2328,
      "Ġsubcontinent": 2329,
      "Ġexpand": 2330,
      "Ġrange": 2331,
      "Ġ1950": 2332,
      "osyste": 2333,
      "âĢĭ,": 2334,
      "Ġsyn": 2335,
      "Ġitself": 2336,
      "ĠRes": 2337,
      "Ġleast": 2338,
      "Ġaddress": 2339,
      "license": 2340,
      "Ġyields": 2341,
      "Ġresp": 2342,
      "Ġnumer": 2343,
      "Ġgenerally": 2344,
      "Ġbecom": 2345,
      "view": 2346,
      "ĠChris": 2347,
      "Ġlarger": 2348,
      "permission": 2349,
      "Ġdecreas": 2350,
      "Ġnotable": 2351,
      "Ġgrew": 2352,
      "Ġgreen": 2353,
      "Ġmajority": 2354,
      "Ġaccording": 2355,
      "Ġbiodiversity": 2356,
      "Ġshare": 2357,
      "ieval": 2358,
      "ified": 2359,
      "Ġ70": 2360,
      "Ġfocused": 2361,
      "ĠAmerican": 2362,
      "Ġfacts": 2363,
      "Ġindustrial": 2364,
      "Ġsignificantly": 2365,
      "Ġorganis": 2366,
      "Ġvalid": 2367,
      "Ġadvances": 2368,
      "Ġmaterial": 2369,
      "Ġemployed": 2370,
      "Ġoccup": 2371,
      "Ġapplication": 2372,
      "Ġcontexts": 2373,
      "Ġstarted": 2374,
      "Ġimprove": 2375,
      "ographic": 2376,
      "Ġserved": 2377,
      "Ġfarms": 2378,
      "idespread": 2379,
      "ĠHinduism": 2380,
      "ĠText": 2381,
      "Ġrisk": 2382,
      "Ġlimited": 2383,
      "Ġperspective": 2384,
      "Ġcharacter": 2385,
      "Ġhypotheses": 2386,
      "Ġfunction": 2387,
      "Ġrules": 2388,
      "ĠScientific": 2389,
      "curity": 2390,
      "Ġachieve": 2391,
      "Ġincorporates": 2392,
      "Ġresistance": 2393,
      "Ġconsequences": 2394,
      "Ġtechniques": 2395,
      "Ġprofessional": 2396,
      "Ġsmall": 2397,
      "Ġcommercial": 2398,
      "Ġexpansion": 2399,
      "ĠOrganization": 2400,
      "Ġpatterns": 2401,
      "Ġparadigm": 2402,
      "Ġcategor": 2403,
      "200": 2404,
      "Ag": 2405,
      "au": 2406,
      "cular": 2407,
      "ex": 2408,
      "ets": 2409,
      "ga": 2410,
      "ired": 2411,
      "jab": 2412,
      "ob": 2413,
      "oks": 2414,
      "olution": 2415,
      "pro": 2416,
      "rd": 2417,
      "rass": 2418,
      "sych": 2419,
      "vil": 2420,
      "zed": 2421,
      "Ġ{": 2422,
      "Ġauth": 2423,
      "Ġaesthe": 2424,
      "inf": 2425,
      "reh": 2426,
      "ales": 2427,
      "alism": 2428,
      "istics": 2429,
      "Ġsit": 2430,
      "Ġcir": 2431,
      "Ġpa": 2432,
      "Ġpest": 2433,
      "Ġini": 2434,
      "Ġinse": 2435,
      "Ġfin": 2436,
      "Ġdyn": 2437,
      "Ġhun": 2438,
      "Ġtoo": 2439,
      "Ġreach": 2440,
      "Ġreject": 2441,
      "cean": 2442,
      "lying": 2443,
      "ĠIts": 2444,
      "vered": 2445,
      "Ġnear": 2446,
      "ĠAnd": 2447,
      "ĠAge": 2448,
      "mented": 2449,
      "mati": 2450,
      "Ġbelong": 2451,
      "here": 2452,
      "Ġsuc": 2453,
      "opota": 2454,
      "Ġprogra": 2455,
      "ĠCom": 2456,
      "ute": 2457,
      "ĠIndo": 2458,
      "Ġ13": 2459,
      "olic": 2460,
      "ady": 2461,
      "ĠEarly": 2462,
      "ĠPri": 2463,
      "pping": 2464,
      "Ġsubjective": 2465,
      "Ġsubsid": 2466,
      "Ġstat": 2467,
      "ĠGe": 2468,
      "Ġdiversity": 2469,
      "Ġrule": 2470,
      "Ġparlia": 2471,
      "Ġincluded": 2472,
      "ĠWhile": 2473,
      "osed": 2474,
      "izing": 2475,
      "izations": 2476,
      "etwor": 2477,
      "Ġtemp": 2478,
      "Ġcontrast": 2479,
      "tivity": 2480,
      "ĠRoman": 2481,
      "Ġstudents": 2482,
      "Ġothers": 2483,
      "Ġlear": 2484,
      "Ġactions": 2485,
      "ĠOn": 2486,
      "arily": 2487,
      "Ġquality": 2488,
      "Ġevolved": 2489,
      "Ġevolution": 2490,
      "Ġcropland": 2491,
      "Ġwheat": 2492,
      "Ġterrit": 2493,
      "Ġrepla": 2494,
      "Ġwhole": 2495,
      "Ġpollution": 2496,
      "Ġ2011": 2497,
      "Ġoutside": 2498,
      "Ġelements": 2499,
      "ĠAmericas": 2500,
      "Ġmedicine": 2501,
      "Ġrecor": 2502,
      "Ġgradu": 2503,
      "Ġenvironment": 2504,
      "Ġindividuals": 2505,
      "Ġcriticism": 2506,
      "most": 2507,
      "Ġproofs": 2508,
      "Ġtrend": 2509,
      "Ġtreat": 2510,
      "Ġregional": 2511,
      "Ġallows": 2512,
      "Ġconcerns": 2513,
      "Ġconcerned": 2514,
      "Ġstructure": 2515,
      "Ġreduced": 2516,
      "Ġextensive": 2517,
      "Ġstandards": 2518,
      "Ġdominant": 2519,
      "Ġexplain": 2520,
      "Ġtransformed": 2521,
      "Ġshaped": 2522,
      "Ġnutrient": 2523,
      "rigation": 2524,
      "Ġquantitative": 2525,
      "fficient": 2526,
      "Ġexplan": 2527,
      "Ġappear": 2528,
      "history": 2529,
      "Ġchalleng": 2530,
      "Ġearliest": 2531,
      "Ġgiven": 2532,
      "Ġapproximately": 2533,
      "India": 2534,
      "Ġaccepted": 2535,
      "ĠMesopota": 2536,
      "Ġengineering": 2537,
      "Ġaverage": 2538,
      "Ġcrisis": 2539,
      "ĠMughal": 2540,
      "Ġgreenh": 2541,
      "Ġsubsidies": 2542,
      "ĠMesopotam": 2543,
      "%,": 2544,
      "16": 2545,
      "ahar": 2546,
      "bor": 2547,
      "fact": 2548,
      "imp": 2549,
      "krit": 2550,
      "mology": 2551,
      "rated": 2552,
      "tric": 2553,
      "ues": 2554,
      "upp": 2555,
      "uctive": 2556,
      "vant": 2557,
      "west": 2558,
      "wide": 2559,
      "ying": 2560,
      "Î±": 2561,
      "Ġti": 2562,
      "Ġver": 2563,
      "related": 2564,
      "ready": 2565,
      "ert": 2566,
      "eration": 2567,
      "erman": 2568,
      "erred": 2569,
      "isions": 2570,
      "ants": 2571,
      "anced": 2572,
      "orted": 2573,
      "Ġinstru": 2574,
      "Ġfu": 2575,
      "Ġwarming": 2576,
      "ato": 2577,
      "Ġmus": 2578,
      "Ġmid": 2579,
      "aries": 2580,
      "Ġbu": 2581,
      "Ġbur": 2582,
      "Ġbod": 2583,
      "Ġel": 2584,
      "Ġden": 2585,
      "Ġdra": 2586,
      "Ġdue": 2587,
      "Ġhy": 2588,
      "Ġhar": 2589,
      "Ġhect": 2590,
      "ratic": 2591,
      "Ġthings": 2592,
      "ĠAm": 2593,
      "cting": 2594,
      "Ġexc": 2595,
      "Ġlin": 2596,
      "ĠBeng": 2597,
      "Ġcosts": 2598,
      "Ġalthough": 2599,
      "Ġalready": 2600,
      "Ġdeterm": 2601,
      "Ġdemand": 2602,
      "Ġoral": 2603,
      "tail": 2604,
      "ĠSi": 2605,
      "ĠSans": 2606,
      "ĠSub": 2607,
      "ĠTheir": 2608,
      "unjab": 2609,
      "Ġhistori": 2610,
      "own": 2611,
      "que": 2612,
      "ĠMus": 2613,
      "ĠModern": 2614,
      "Ġmeans": 2615,
      "Ġconstitu": 2616,
      "orest": 2617,
      "Ġ2000": 2618,
      "ĠPoli": 2619,
      "ĠPunjab": 2620,
      "ĠDis": 2621,
      "Ġsubf": 2622,
      "dean": 2623,
      "ĠFurther": 2624,
      "Ġarti": 2625,
      "ĠNations": 2626,
      "ĠWith": 2627,
      "ĠConfuci": 2628,
      "Ġ197": 2629,
      "imed": 2630,
      "stead": 2631,
      "Ġtheorists": 2632,
      "ctures": 2633,
      "Ġgender": 2634,
      "Ġdeveloping": 2635,
      "Ġcho": 2636,
      "ĠRa": 2637,
      "Ġcompreh": 2638,
      "anging": 2639,
      "Ġproduc": 2640,
      "earch": 2641,
      "Ġleft": 2642,
      "Ġstudying": 2643,
      "Ġabs": 2644,
      "Ġformed": 2645,
      "Ġimplic": 2646,
      "havi": 2647,
      "Ġhowever": 2648,
      "ĠLi": 2649,
      "roughly": 2650,
      "ublish": 2651,
      "Ġbook": 2652,
      "Ġjust": 2653,
      "such": 2654,
      "Ġspecial": 2655,
      "Ġexperimentation": 2656,
      "Ġpracticed": 2657,
      "Ġlikely": 2658,
      "ĠVed": 2659,
      "ount": 2660,
      "Ġmaintain": 2661,
      "cyc": 2662,
      "ĠGreece": 2663,
      "Ġresulting": 2664,
      "Ġindigen": 2665,
      "Ġmarket": 2666,
      "Ġprovided": 2667,
      "Ġelection": 2668,
      "ĠUnion": 2669,
      "ĠEnlightenment": 2670,
      "Ġ40": 2671,
      "Ġmedieval": 2672,
      "Ġtheorem": 2673,
      "Ġfollowed": 2674,
      "Ġparticularly": 2675,
      "Ġassess": 2676,
      "Ġlogical": 2677,
      "Ġlower": 2678,
      "Ġpests": 2679,
      "Ġcorrect": 2680,
      "Ġcontemp": 2681,
      "Ġtypes": 2682,
      "Ġmovements": 2683,
      "Ġprimarily": 2684,
      "Ġstructures": 2685,
      "Ġimproved": 2686,
      "Ġteachings": 2687,
      "Ġlevels": 2688,
      "Ġaffected": 2689,
      "Ġmultip": 2690,
      "Ġperspectives": 2691,
      "Ġcharacteri": 2692,
      "Ġhypothesis": 2693,
      "Ġidentity": 2694,
      "Ġgenetic": 2695,
      "Ġcultivation": 2696,
      "Ġclaims": 2697,
      "Ġinterpretation": 2698,
      "Ġrelative": 2699,
      "ĠEgypt": 2700,
      "ĠArabic": 2701,
      "Ġdistinct": 2702,
      "Ġmoral": 2703,
      "Ġthinking": 2704,
      "Ġvariab": 2705,
      "Ġvege": 2706,
      "Ġaxiom": 2707,
      "Ġecosyste": 2708,
      "Ġoccurred": 2709,
      "Ġpreviously": 2710,
      "Ġprinciples": 2711,
      "nected": 2712,
      "Ġirrigation": 2713,
      "Ġexchange": 2714,
      "ĠCentral": 2715,
      "Ġagainst": 2716,
      "ĠResearch": 2717,
      "ĠChristian": 2718,
      "Agricul": 2719,
      "Ġgreenhouse": 2720,
      "ĠBengal": 2721,
      "ĠSanskrit": 2722,
      "Ġindigenous": 2723,
      "30": 2724,
      "ai": 2725,
      "bi": 2726,
      "bit": 2727,
      "bri": 2728,
      "flu": 2729,
      "gital": 2730,
      "hn": 2731,
      "hic": 2732,
      "hich": 2733,
      "ox": 2734,
      "ps": 2735,
      "pite": 2736,
      "utheast": 2737,
      "way": 2738,
      "ward": 2739,
      "zing": 2740,
      "Ã©": 2741,
      "á¹": 2742,
      "Ġim": 2743,
      "Ġroughly": 2744,
      "Ġaff": 2745,
      "Ġavo": 2746,
      "ints": 2747,
      "ond": 2748,
      "ony": 2749,
      "ending": 2750,
      "alile": 2751,
      "erve": 2752,
      "ises": 2753,
      "Ġshi": 2754,
      "Ġsimp": 2755,
      "Ġofficial": 2756,
      "ority": 2757,
      "orary": 2758,
      "Ġpsych": 2759,
      "Ġpublish": 2760,
      "Ġinj": 2761,
      "Ġintu": 2762,
      "Ġfre": 2763,
      "Ġfal": 2764,
      "Ġfru": 2765,
      "Ġwill": 2766,
      "Ġwidespread": 2767,
      "atom": 2768,
      "atter": 2769,
      "attle": 2770,
      "Ġmust": 2771,
      "Ġmiddle": 2772,
      "Ġbar": 2773,
      "Ġeff": 2774,
      "Ġda": 2775,
      "Ġded": 2776,
      "cies": 2777,
      "Ġrecent": 2778,
      "uras": 2779,
      "urish": 2780,
      "vere": 2781,
      "Ġnetwor": 2782,
      "ĠAc": 2783,
      "Ġgive": 2784,
      "Ġconstru": 2785,
      "Ġlatter": 2786,
      "Ġcook": 2787,
      "Ġprote": 2788,
      "Ġpropos": 2789,
      "ĠCar": 2790,
      "Ġalmost": 2791,
      "Ġdeci": 2792,
      "uted": 2793,
      "irtu": 2794,
      "ĠSta": 2795,
      "illa": 2796,
      "ĠEconom": 2797,
      "ĠEuras": 2798,
      "ĠMed": 2799,
      "Ġusage": 2800,
      "Ġ26": 2801,
      "ĠPyth": 2802,
      "ternative": 2803,
      "ĠInternational": 2804,
      "Ġsearch": 2805,
      "Ġsepar": 2806,
      "Ġsector": 2807,
      "Ġvary": 2808,
      "ĠGand": 2809,
      "ĠGerman": 2810,
      "ĠGalile": 2811,
      "Ġens": 2812,
      "bert": 2813,
      "ĠHimal": 2814,
      "Ġdiverse": 2815,
      "Ġdigital": 2816,
      "Ġrates": 2817,
      "Ġdisput": 2818,
      "Ġintellectual": 2819,
      "Ġriver": 2820,
      "Ġ\";": 2821,
      "Ġatt": 2822,
      "Ġsymb": 2823,
      "anged": 2824,
      "Ġyield": 2825,
      "Ġworldwide": 2826,
      "Ġcultures": 2827,
      "erence": 2828,
      "erences": 2829,
      "Ġresearchers": 2830,
      "Ġperiods": 2831,
      "Ġintera": 2832,
      "aking": 2833,
      "aged": 2834,
      "Ġneg": 2835,
      "Ġcauses": 2836,
      "ĠJo": 2837,
      "ĠJan": 2838,
      "ĠJain": 2839,
      "ervation": 2840,
      "Ġaccur": 2841,
      "Ġfounded": 2842,
      "ĠHistorical": 2843,
      "Ġhigher": 2844,
      "Ġhighly": 2845,
      "ĠAlthough": 2846,
      "pected": 2847,
      "Ġexamine": 2848,
      "Ġfeed": 2849,
      "Ġ60": 2850,
      "Ġmedical": 2851,
      "lands": 2852,
      "Ġfactor": 2853,
      "Ġfactors": 2854,
      "Ġcontrovers": 2855,
      "Ġemployment": 2856,
      "Ġintroduction": 2857,
      "Ġallowing": 2858,
      "Ġgoals": 2859,
      "Ġcurricul": 2860,
      "Ġrequires": 2861,
      "ĊĠĠĠĠĠĠĠĠĊĠĠĠĠĠĠĠĠ": 2862,
      "Ġheld": 2863,
      "Ġlabel": 2864,
      "Ġnarrative": 2865,
      "Ġconflic": 2866,
      "Ġstandard": 2867,
      "Ġcontributed": 2868,
      "ĠNewton": 2869,
      "ĊĠĠĠĠĠĠĠ": 2870,
      "Ġdocuments": 2871,
      "Ġfamili": 2872,
      "ĠPhilosophy": 2873,
      "Ġdirectly": 2874,
      "Ġfram": 2875,
      "Ġannual": 2876,
      "Ġdisease": 2877,
      "Ġdiseases": 2878,
      "Ġrigorous": 2879,
      "Ġscholars": 2880,
      "Ġliteracy": 2881,
      "Ġbeginning": 2882,
      "largest": 2883,
      "Ġrice": 2884,
      "Ġinnovations": 2885,
      "Ġoldest": 2886,
      "Ġfigures": 2887,
      "Ġantiqu": 2888,
      "Ġmeasure": 2889,
      "Ġuniverse": 2890,
      "Ġcivilizations": 2891,
      "Ġsimilar": 2892,
      "Ġflourish": 2893,
      "ĠMarx": 2894,
      "Ġastronomy": 2895,
      "Ġinputs": 2896,
      "Ġjournals": 2897,
      "disciplinary": 2898,
      "Ġbusiness": 2899,
      "Ġsuccess": 2900,
      "Ġstatus": 2901,
      "Ġrecorded": 2902,
      "Ġgradually": 2903,
      "Ġcomprehensive": 2904,
      "Ġimplications": 2905,
      "Ġvariables": 2906,
      "Ġavoid": 2907,
      "ĠPythag": 2908,
      "ĠGandhi": 2909,
      "ĠHimalay": 2910,
      "10": 2911,
      "DP": 2912,
      "MO": 2913,
      "ares": 2914,
      "aces": 2915,
      "avi": 2916,
      "ca": 2917,
      "cause": 2918,
      "crip": 2919,
      "crete": 2920,
      "dom": 2921,
      "eth": 2922,
      "equ": 2923,
      "lation": 2924,
      "mas": 2925,
      "na": 2926,
      "nes": 2927,
      "new": 2928,
      "olu": 2929,
      "po": 2930,
      "port": 2931,
      "tation": 2932,
      "uthern": 2933,
      "which": 2934,
      "yl": 2935,
      "yles": 2936,
      "Î¼": 2937,
      "Ġ)": 2938,
      "Ġaqu": 2939,
      "ones": 2940,
      "ene": 2941,
      "Ġserv": 2942,
      "Ġsix": 2943,
      "Ġcl": 2944,
      "Ġcities": 2945,
      "Ġclear": 2946,
      "anate": 2947,
      "ict": 2948,
      "Ġpas": 2949,
      "Ġpress": 2950,
      "edi": 2951,
      "Ġinvention": 2952,
      "Ġfem": 2953,
      "Ġfall": 2954,
      "Ġwa": 2955,
      "Ġmis": 2956,
      "ropping": 2957,
      "Ġeast": 2958,
      "Ġepistemology": 2959,
      "ental": 2960,
      "ented": 2961,
      "Ġderi": 2962,
      "Ġhol": 2963,
      "Ġharm": 2964,
      "itage": 2965,
      "Ġrest": 2966,
      "Ġrenew": 2967,
      "level": 2968,
      "istry": 2969,
      "stre": 2970,
      "Ġthird": 2971,
      "ĠAd": 2972,
      "Ġgrass": 2973,
      "Ġconcent": 2974,
      "ctr": 2975,
      "math": 2976,
      "Ġbehavi": 2977,
      "hel": 2978,
      "Ġexe": 2979,
      "Ġline": 2980,
      "Ġlack": 2981,
      "Ġlingu": 2982,
      "ĠBo": 2983,
      "oph": 2984,
      "elhi": 2985,
      "Ġcoast": 2986,
      "Ġcovers": 2987,
      "Ġpromin": 2988,
      "Ġpromo": 2989,
      "gether": 2990,
      "Ġdev": 2991,
      "Ġwithdra": 2992,
      "ĠSa": 2993,
      "ĠSince": 2994,
      "Ġanatom": 2995,
      "oll": 2996,
      "Ġlive": 2997,
      "Ġmeat": 2998,
      "Ġ21": 2999,
      "ĠInflu": 3000,
      "Ġsets": 3001,
      "Ġsecurity": 3002,
      "ĠDi": 3003,
      "ĠDem": 3004,
      "ĠDelhi": 3005,
      "ames": 3006,
      "Ġsubsequ": 3007,
      "Ġstyles": 3008,
      "ĠGu": 3009,
      "ĠGanges": 3010,
      "Ġende": 3011,
      "Ġenab": 3012,
      "Ġdiffic": 3013,
      "umer": 3014,
      "otle": 3015,
      "Ġarm": 3016,
      "Ġparty": 3017,
      "stry": 3018,
      "ĠWomen": 3019,
      "Ġmanure": 3020,
      "Ġchain": 3021,
      "Ġproduced": 3022,
      "Ġrights": 3023,
      "Ġimple": 3024,
      "Ġempires": 3025,
      "Ġeven": 3026,
      "ensity": 3027,
      "Ġbetter": 3028,
      "Ġcommod": 3029,
      "Ġperform": 3030,
      "Ġrainf": 3031,
      "Ġjud": 3032,
      "Ġdecision": 3033,
      "Ġdecades": 3034,
      "ĠSoutheast": 3035,
      "Ġlands": 3036,
      "efore": 3037,
      "Ġtransmit": 3038,
      "Ġexperiences": 3039,
      "century": 3040,
      "Ġneeds": 3041,
      "Ġdifferential": 3042,
      "Ġfoundation": 3043,
      "Ġfoundational": 3044,
      "Ġpolitics": 3045,
      "Ġbias": 3046,
      "Ġbiological": 3047,
      "Ġspace": 3048,
      "Ġshared": 3049,
      "Ġhighligh": 3050,
      "rench": 3051,
      "Ġidea": 3052,
      "Ġobser": 3053,
      "Ġdistrib": 3054,
      "Ġprovides": 3055,
      "Ġ2010": 3056,
      "Ġcreating": 3057,
      "Ġexamining": 3058,
      "minist": 3059,
      "Ġrecog": 3060,
      "Ġestablishment": 3061,
      "Ġprocesses": 3062,
      "Ġadvance": 3063,
      "Ġoriginated": 3064,
      "Ġmatter": 3065,
      "ĠMathematical": 3066,
      "Ġinvolved": 3067,
      "ĠArch": 3068,
      "Ġdescrip": 3069,
      "Ġsurf": 3070,
      "Ġtake": 3071,
      "Ġissue": 3072,
      "ĠPlate": 3073,
      "Ġtakes": 3074,
      "Ġherbic": 3075,
      "Ġheritage": 3076,
      "ilities": 3077,
      "Ġpursu": 3078,
      "Ġpurpose": 3079,
      "Ġseeks": 3080,
      "ultanate": 3081,
      "Ġaware": 3082,
      "Ġsolved": 3083,
      "Ġidentify": 3084,
      "Ġsecondary": 3085,
      "Ġarrive": 3086,
      "Ġformulas": 3087,
      "Ġformulated": 3088,
      "Ġgreatly": 3089,
      "Ġdescribe": 3090,
      "Ġextre": 3091,
      "ĠPhilosoph": 3092,
      "Ġadopted": 3093,
      "Ġpredictions": 3094,
      "Ġguid": 3095,
      "ĠCompany": 3096,
      "Ġ1947": 3097,
      "Ġtools": 3098,
      "ĠAristotle": 3099,
      "Ġchemistry": 3100,
      "Ġessential": 3101,
      "Ġrelevant": 3102,
      "Ġgoods": 3103,
      "Ġcompeting": 3104,
      "Ġexpanded": 3105,
      "Ġtrends": 3106,
      "ĠMesopotamia": 3107,
      "Ġmusic": 3108,
      "Ġharvest": 3109,
      "ĠAmong": 3110,
      "Ġsubfields": 3111,
      "cyclop": 3112,
      "Ġaxiomatic": 3113,
      "Ġimm": 3114,
      "Ġbarley": 3115,
      "Ġcurriculum": 3116,
      "Ġantiquity": 3117,
      "Ġwithdraw": 3118,
      "40": 3119,
      "51": 3120,
      "JP": 3121,
      "Sahar": 3122,
      "cation": 3123,
      "col": 3124,
      "gg": 3125,
      "gn": 3126,
      "hw": 3127,
      "hes": 3128,
      "hat": 3129,
      "hru": 3130,
      "ilo": 3131,
      "itive": 3132,
      "ios": 3133,
      "kes": 3134,
      "mens": 3135,
      "ote": 3136,
      "overed": 3137,
      "pic": 3138,
      "ras": 3139,
      "rates": 3140,
      "sw": 3141,
      "ug": 3142,
      "ype": 3143,
      "ÏĦ": 3144,
      "Ġ*": 3145,
      "Ġvery": 3146,
      "ĠĊĠĠ": 3147,
      "Ġact": 3148,
      "tially": 3149,
      "rer": 3150,
      "Ġthems": 3151,
      "Ġopp": 3152,
      "ali": 3153,
      "alley": 3154,
      "Ġsil": 3155,
      "Ġscul": 3156,
      "Ġcere": 3157,
      "Ġcrit": 3158,
      "Ġcross": 3159,
      "anta": 3160,
      "ork": 3161,
      "oring": 3162,
      "oration": 3163,
      "orized": 3164,
      "ick": 3165,
      "iction": 3166,
      "Ġpain": 3167,
      "Ġfed": 3168,
      "Ġfish": 3169,
      "Ġwest": 3170,
      "aton": 3171,
      "atory": 3172,
      "Ġmic": 3173,
      "Ġtrig": 3174,
      "Ġtype": 3175,
      "ara": 3176,
      "arth": 3177,
      "arding": 3178,
      "Ġbir": 3179,
      "Ġdid": 3180,
      "Ġdia": 3181,
      "Ġday": 3182,
      "Ġdown": 3183,
      "ita": 3184,
      "itect": 3185,
      "itual": 3186,
      "cil": 3187,
      "cienti": 3188,
      "Ġret": 3189,
      "Ġrecon": 3190,
      "ulate": 3191,
      "lies": 3192,
      "ĠII": 3193,
      "style": 3194,
      "chn": 3195,
      "Ġnation": 3196,
      "Ġthreat": 3197,
      "ĠAct": 3198,
      "Ġgap": 3199,
      "Ġconject": 3200,
      "Ġforces": 3201,
      "mative": 3202,
      "Ġmaking": 3203,
      "heep": 3204,
      "Ġlist": 3205,
      "Ġlines": 3206,
      "Ġleng": 3207,
      "Ġsup": 3208,
      "Ġsumm": 3209,
      "operation": 3210,
      "els": 3211,
      "elves": 3212,
      "Ġcoal": 3213,
      "Ġcohe": 3214,
      "Ġprom": 3215,
      "Ġproven": 3216,
      "ĠCi": 3217,
      "ĠClass": 3218,
      "Ġdemo": 3219,
      "Ġdetail": 3220,
      "Ġord": 3221,
      "Ġwhy": 3222,
      "luding": 3223,
      "Ġansw": 3224,
      "ĠIndians": 3225,
      "Ġ12": 3226,
      "olence": 3227,
      "rich": 3228,
      "ĠEty": 3229,
      "ĠEarth": 3230,
      "Ġliving": 3231,
      "Ġsouthern": 3232,
      "labor": 3233,
      "ĠMha": 3234,
      "ĠMost": 3235,
      "ometry": 3236,
      "Ġcomes": 3237,
      "Ġagro": 3238,
      "Ġconsensus": 3239,
      "ĠPersian": 3240,
      "ternet": 3241,
      "Ġseen": 3242,
      "ologists": 3243,
      "Ġvirtu": 3244,
      "Ġvilla": 3245,
      "Ġwords": 3246,
      "ĠGre": 3247,
      "ĠGovern": 3248,
      "ĠGMO": 3249,
      "asty": 3250,
      "ĠHer": 3251,
      "Ġhaving": 3252,
      "Ġactive": 3253,
      "umes": 3254,
      "anted": 3255,
      "otes": 3256,
      "oted": 3257,
      "Ġrun": 3258,
      "ĠFrench": 3259,
      "ĠNatural": 3260,
      "Ġking": 3261,
      "ĠWil": 3262,
      "igration": 3263,
      "etry": 3264,
      "etween": 3265,
      "Ġsymm": 3266,
      "Ġfunding": 3267,
      "ĠRuss": 3268,
      "Ġcompar": 3269,
      "Ġcompared": 3270,
      "Ġproduce": 3271,
      "Ġobtain": 3272,
      "Ġadminist": 3273,
      "lication": 3274,
      "ĠOver": 3275,
      "Ġsociology": 3276,
      "ĠConstitution": 3277,
      "Ġnotation": 3278,
      "reements": 3279,
      "Ġmethodology": 3280,
      "Ġuseful": 3281,
      "ĠUni": 3282,
      "Ġevent": 3283,
      "rought": 3284,
      "Ġworkers": 3285,
      "Ġgeology": 3286,
      "Ġphilosopher": 3287,
      "Ġdeforest": 3288,
      "ights": 3289,
      "Ġoverla": 3290,
      "titudes": 3291,
      "Ġdoctr": 3292,
      "aging": 3293,
      "Ġcounter": 3294,
      "Ġdecl": 3295,
      "Ġdecisions": 3296,
      "ĠSoci": 3297,
      "ĠSour": 3298,
      "Ġplaced": 3299,
      "Ġplays": 3300,
      "ĊĠĠĠĠĊĠĠĠĠĠĠ": 3301,
      "Ġthroughout": 3302,
      "Ġdiscrete": 3303,
      "Ġdiscovered": 3304,
      "raph": 3305,
      "ĠAges": 3306,
      "Ġnecess": 3307,
      "Ġnext": 3308,
      "Ġcausal": 3309,
      "ĠJap": 3310,
      "ĠVari": 3311,
      "ĠValley": 3312,
      "Ġglobally": 3313,
      "Ġ30": 3314,
      "tables": 3315,
      "ĠHistorians": 3316,
      "Ġpopulations": 3317,
      "Ġhead": 3318,
      "Ġheavi": 3319,
      "Ġrefers": 3320,
      "Ġlargely": 3321,
      "Ġmargin": 3322,
      "ĠAlgebra": 3323,
      "Ġproviding": 3324,
      "Ġoutput": 3325,
      "Ġconclus": 3326,
      "Ġamounts": 3327,
      "Ġmathematician": 3328,
      "Ġ2022": 3329,
      "mination": 3330,
      "Ġcolonial": 3331,
      "Ġscar": 3332,
      "Ġequip": 3333,
      "Ġupon": 3334,
      "Ġforests": 3335,
      "Ġforeign": 3336,
      "Ġorganic": 3337,
      "Ġmodeling": 3338,
      "Ġimportance": 3339,
      "Ġ2001": 3340,
      "Ġadvanced": 3341,
      "ĠHindi": 3342,
      "Ġbelie": 3343,
      "Ġlonger": 3344,
      "Ġpesticide": 3345,
      "Ġcase": 3346,
      "Ġcases": 3347,
      "Ġbroadly": 3348,
      "Ġpredomin": 3349,
      "Ġsurvi": 3350,
      "Ġstarting": 3351,
      "ĠAfrican": 3352,
      "Ġlittle": 3353,
      "Ġfertilizer": 3354,
      "Ġremained": 3355,
      "Ġemphasis": 3356,
      "Ġrepresenting": 3357,
      "Ġrelying": 3358,
      "Ġmulch": 3359,
      "Ġshapes": 3360,
      "Ġconducted": 3361,
      "Ġcommunic": 3362,
      "Ġindependent": 3363,
      "Ġindependently": 3364,
      "Ġgave": 3365,
      "Ġdivine": 3366,
      "Ġdivision": 3367,
      "Ġarchae": 3368,
      "Ġarchitect": 3369,
      "Ġuniversal": 3370,
      "Ġcollection": 3371,
      "fficiency": 3372,
      "Ġdriving": 3373,
      "ĠHealth": 3374,
      "force": 3375,
      "ixed": 3376,
      "Ġera": 3377,
      "Ġcomputational": 3378,
      "ĠSee": 3379,
      "Ġturn": 3380,
      "Ġprobab": 3381,
      "Ġprobability": 3382,
      "Ġdebates": 3383,
      "Ġattempt": 3384,
      "Ġattempts": 3385,
      "Ġencompassing": 3386,
      "Ġjustification": 3387,
      "play": 3388,
      "ĠNehru": 3389,
      "Ġstatistics": 3390,
      "Ġeastern": 3391,
      "Ġprecise": 3392,
      "Ġdiscussion": 3393,
      "known": 3394,
      "ĠBecause": 3395,
      "Ġsynthes": 3396,
      "Ġrespons": 3397,
      "Ġbecomes": 3398,
      "Ġaesthetics": 3399,
      "Ġcirc": 3400,
      "ĠPrize": 3401,
      "Ġparliamentary": 3402,
      "Ġextensively": 3403,
      "Ġlinks": 3404,
      "ĠSikh": 3405,
      "ĠMuslim": 3406,
      "Ġconstitutes": 3407,
      "Ġproducers": 3408,
      "Ġcontemporary": 3409,
      "Ġvegetables": 3410,
      "Ġecosystems": 3411,
      "Agriculture": 3412,
      "Ġpsychology": 3413,
      "Ġfrequ": 3414,
      "ĠStatis": 3415,
      "ĠEurasia": 3416,
      "Ġnegative": 3417,
      "Ġfamilies": 3418,
      "Ġframew": 3419,
      "ĠPythagore": 3420,
      "Î¼Î±": 3421,
      "ĠInfluential": 3422,
      "Ġrainfall": 3423,
      "Ġtransmitted": 3424,
      "Saharan": 3425,
      "ĠĊĠĠĊĠĠĠĠĊĠĠĠĠĠĠ": 3426,
      "Ġthemselves": 3427,
      "Ġsculp": 3428,
      "Ġcriter": 3429,
      "Ġpainting": 3430,
      "Ġlength": 3431,
      "Ġdemoc": 3432,
      "ĠEtymology": 3433,
      "ĠJapan": 3434,
      "Ġheavily": 3435,
      "Ġequipment": 3436,
      "',": 3437,
      "11": 3438,
      "27": 3439,
      "96": 3440,
      "Europe": 3441,
      "ao": 3442,
      "aman": 3443,
      "ather": 3444,
      "bb": 3445,
      "co": 3446,
      "den": 3447,
      "doms": 3448,
      "food": 3449,
      "fically": 3450,
      "ground": 3451,
      "ier": 3452,
      "mi": 3453,
      "modern": 3454,
      "nom": 3455,
      "pid": 3456,
      "pure": 3457,
      "ring": 3458,
      "rust": 3459,
      "stitu": 3460,
      "ution": 3461,
      "uary": 3462,
      "vas": 3463,
      "vent": 3464,
      "ya": 3465,
      "¸Î": 3466,
      "ĠQ": 3467,
      "ĠZ": 3468,
      "Ġz": 3469,
      "Ġupp": 3470,
      "throp": 3471,
      "Ġair": 3472,
      "Ġable": 3473,
      "iner": 3474,
      "inter": 3475,
      "tiz": 3476,
      "onnes": 3477,
      "therer": 3478,
      "reg": 3479,
      "ening": 3480,
      "ends": 3481,
      "enins": 3482,
      "isdom": 3483,
      "Ġslow": 3484,
      "Ġsens": 3485,
      "Ġsultanate": 3486,
      "Ġcle": 3487,
      "Ġcru": 3488,
      "Ġcattle": 3489,
      "ank": 3490,
      "anw": 3491,
      "ori": 3492,
      "icist": 3493,
      "Ġplo": 3494,
      "Ġpse": 3495,
      "Ġpric": 3496,
      "Ġpath": 3497,
      "Ġpenins": 3498,
      "edia": 3499,
      "tional": 3500,
      "Ġful": 3501,
      "Ġfast": 3502,
      "Ġflow": 3503,
      "Ġfive": 3504,
      "Ġwr": 3505,
      "Ġwon": 3506,
      "Ġwars": 3507,
      "ator": 3508,
      "Ġmale": 3509,
      "Ġtrib": 3510,
      "Ġtend": 3511,
      "Ġtonnes": 3512,
      "Ġbor": 3513,
      "Ġbla": 3514,
      "Ġbest": 3515,
      "Ġemb": 3516,
      "Ġefficiency": 3517,
      "astics": 3518,
      "astern": 3519,
      "Ġdest": 3520,
      "Ġdates": 3521,
      "Ġdone": 3522,
      "Ġhor": 3523,
      "itation": 3524,
      "Ġtowards": 3525,
      "Ġtogether": 3526,
      "Ġrece": 3527,
      "uries": 3528,
      "ulture": 3529,
      "ched": 3530,
      "Ġconta": 3531,
      "Ġconstra": 3532,
      "Ġasks": 3533,
      "mage": 3534,
      "ĠTo": 3535,
      "ĠTam": 3536,
      "Ġbelow": 3537,
      "Ġmakes": 3538,
      "Ġsufficient": 3539,
      "ĠBa": 3540,
      "ĠBab": 3541,
      "ĠBefore": 3542,
      "ĠBJP": 3543,
      "ĠBetween": 3544,
      "tual": 3545,
      "Ġcore": 3546,
      "Ġprov": 3547,
      "Ġproved": 3548,
      "Ġprogress": 3549,
      "ĠChar": 3550,
      "ĠCrop": 3551,
      "ĠCoun": 3552,
      "Ġalone": 3553,
      "Ġalternative": 3554,
      "Ġdepend": 3555,
      "Ġdeath": 3556,
      "ght": 3557,
      "Ġones": 3558,
      "Ġonline": 3559,
      "lutions": 3560,
      "ĠSpeci": 3561,
      "ĠIndustrial": 3562,
      "iable": 3563,
      "Ġhistories": 3564,
      "pective": 3565,
      "ĠEastern": 3566,
      "fici": 3567,
      "Ġsoon": 3568,
      "Ġsolution": 3569,
      "ĠMo": 3570,
      "ĠMore": 3571,
      "duced": 3572,
      "Ġconsists": 3573,
      "Ġconservation": 3574,
      "Ġ25": 3575,
      "ĠPrin": 3576,
      "time": 3577,
      "Ġsea": 3578,
      "Ġsecular": 3579,
      "Ġinference": 3580,
      "Ġvolu": 3581,
      "Ġstyle": 3582,
      "ĠGlob": 3583,
      "ĠGold": 3584,
      "ĠGDP": 3585,
      "Ġencyclop": 3586,
      "ĠHind": 3587,
      "Ġdimens": 3588,
      "ught": 3589,
      "otorized": 3590,
      "ĠFollow": 3591,
      "Ġarts": 3592,
      "osition": 3593,
      "stein": 3594,
      "Ġunc": 3595,
      "inea": 3596,
      "tivism": 3597,
      "Ġmanip": 3598,
      "Ġmotiv": 3599,
      "Ġchron": 3600,
      "Ġchanged": 3601,
      "ĠRef": 3602,
      "Ġobje": 3603,
      "Ġmodified": 3604,
      "Ġadap": 3605,
      "Ġpoor": 3606,
      "ĠOcean": 3607,
      "kets": 3608,
      "Ġresid": 3609,
      "Ġrespect": 3610,
      "Ġrespective": 3611,
      "Ġhumanities": 3612,
      "Ġregarded": 3613,
      "Ġregarding": 3614,
      "Ġrelies": 3615,
      "ormal": 3616,
      "Ġbasis": 3617,
      "Ġdefe": 3618,
      "Ġoverall": 3619,
      "Ġwhereas": 3620,
      "Ġinterdisciplinary": 3621,
      "ĠAsian": 3622,
      "Ġbooks": 3623,
      "Ġdoub": 3624,
      "Ġrati": 3625,
      "Ġrapid": 3626,
      "Ġreport": 3627,
      "Ġrepublic": 3628,
      "ĠSoc": 3629,
      "Ġrock": 3630,
      "Ġnoun": 3631,
      "Ġtransport": 3632,
      "elling": 3633,
      "Ġfoods": 3634,
      "Ġexperimental": 3635,
      "Ġgeometric": 3636,
      "culus": 3637,
      "ĠVa": 3638,
      "ĠVi": 3639,
      "Ġthemes": 3640,
      "Ġ300": 3641,
      "Ġbiology": 3642,
      "Ġshor": 3643,
      "Ġspir": 3644,
      "Ġspaces": 3645,
      "Ġtherefore": 3646,
      "Ġreferred": 3647,
      "Ġmarked": 3648,
      "Ġcreation": 3649,
      "roduction": 3650,
      "Ġsupply": 3651,
      "Ġamount": 3652,
      "Ġelections": 3653,
      "Ġfeature": 3654,
      "ĠEnviron": 3655,
      "Ġtraditionally": 3656,
      "Ġscale": 3657,
      "Ġrecord": 3658,
      "Ġargue": 3659,
      "Ġsetting": 3660,
      "Ġautonom": 3661,
      "Ġindic": 3662,
      "Ġweeds": 3663,
      "Ġleads": 3664,
      "Ġcritical": 3665,
      "Ġcritically": 3666,
      "ĠState": 3667,
      "Ġnarrow": 3668,
      "Ġviews": 3669,
      "Ġposition": 3670,
      "Ġinvolving": 3671,
      "Ġgoal": 3672,
      "Ġempiricism": 3673,
      "Ġbroader": 3674,
      "Ġcurrent": 3675,
      "Ġethical": 3676,
      "Ġcontext": 3677,
      "Ġseries": 3678,
      "Ġpurpos": 3679,
      "Ġremains": 3680,
      "Ġextended": 3681,
      "Ġdiscoveries": 3682,
      "lusive": 3683,
      "Ġentire": 3684,
      "Ġsafety": 3685,
      "Ġ1991": 3686,
      "Ġawarded": 3687,
      "Ġsolving": 3688,
      "Ġgenetics": 3689,
      "Ġfunctions": 3690,
      "Ġexpressed": 3691,
      "Ġexpressions": 3692,
      "Ġarrival": 3693,
      "Ġcapital": 3694,
      "Ġcommunity": 3695,
      "Ġdocument": 3696,
      "ĠIslam": 3697,
      "Ġindependence": 3698,
      "Ġopin": 3699,
      "Ġoptim": 3700,
      "Ġfamily": 3701,
      "Ġrelativity": 3702,
      "Ġgather": 3703,
      "Ġgained": 3704,
      "ĠEgyptian": 3705,
      "Ġmechanics": 3706,
      "Ġmechanization": 3707,
      "Ġaccessible": 3708,
      "Ġuniversities": 3709,
      "Ġadoption": 3710,
      "Ġpersonal": 3711,
      "ĠScientists": 3712,
      "ĠArab": 3713,
      "Ġcourse": 3714,
      "Ġannually": 3715,
      "Ġconsisting": 3716,
      "Ġexploration": 3717,
      "Ġentered": 3718,
      "Ġthink": 3719,
      "Ġadditional": 3720,
      "Ġplayed": 3721,
      "Ġaxioms": 3722,
      "Ġspeaking": 3723,
      "Ġpossess": 3724,
      "Ġpossib": 3725,
      "Ġinnovation": 3726,
      "Ġcontains": 3727,
      "Ġdebate": 3728,
      "Ġcombination": 3729,
      "Ġsubjects": 3730,
      "Ġunique": 3731,
      "Ġcivilization": 3732,
      "income": 3733,
      "including": 3734,
      "Ġexplore": 3735,
      "Ġstatistical": 3736,
      "Ġpolynom": 3737,
      "Ġtaxation": 3738,
      "Ġcontinued": 3739,
      "Ġmachiner": 3740,
      "ĠEuclid": 3741,
      "ĠEuclidean": 3742,
      "Ġorganisations": 3743,
      "gatherer": 3744,
      "Ġ{\\": 3745,
      "Ġdynasty": 3746,
      "Ġhunter": 3747,
      "ĠAndaman": 3748,
      "Ġtemper": 3749,
      "Ġterritories": 3750,
      "Ġchallenged": 3751,
      "Ġbody": 3752,
      "Ġhybri": 3753,
      "Ġdetermine": 3754,
      "Ġhistoriography": 3755,
      "ĠPolitical": 3756,
      "ĠConfucianism": 3757,
      "Ġchoice": 3758,
      "Ġpublished": 3759,
      "Ġinjuries": 3760,
      "Ġfallow": 3761,
      "Ġdeductive": 3762,
      "ĠAcadem": 3763,
      "Ġproposed": 3764,
      "ĠGalileo": 3765,
      "Ġattrib": 3766,
      "ĠJohn": 3767,
      "ĠJanuary": 3768,
      "ĠJainism": 3769,
      "Ġcontroversial": 3770,
      "ĊĠĠĠĠĠĠĠĠĊĠĠĠĠĠĠĠĠĠ": 3771,
      "Ġflourished": 3772,
      "ĠHimalayas": 3773,
      "ylon": 3774,
      "stream": 3775,
      "Ġgrassland": 3776,
      "Ġbehaviour": 3777,
      "Ġexecu": 3778,
      "Ġprominent": 3779,
      "Ġpromote": 3780,
      "Ġsubsequent": 3781,
      "Ġdifficult": 3782,
      "Ġcommodities": 3783,
      "Ġdescription": 3784,
      "Ġsurface": 3785,
      "Ġextreme": 3786,
      "Ġwithdrawals": 3787,
      "colonial": 3788,
      "gnos": 3789,
      "Ġfederal": 3790,
      "Ġbirth": 3791,
      "Ġdiagnos": 3792,
      "Ġretur": 3793,
      "Ġconjecture": 3794,
      "Ġordinary": 3795,
      "Ġkingdoms": 3796,
      "Ġobtained": 3797,
      "Ġdeforestation": 3798,
      "Ġdoctrines": 3799,
      "ĠSociety": 3800,
      "Ġarchitecture": 3801,
      "Ġcriteria": 3802,
      "European": 3803,
      "Ġupper": 3804,
      "Ġcrucial": 3805,
      "Ġpseud": 3806,
      "Ġblack": 3807,
      "ĠTamil": 3808,
      "ĠBabylon": 3809,
      "ĠFollowing": 3810,
      "Ġmanipul": 3811,
      "ĠReferences": 3812,
      "Ġpurposes": 3813,
      "Ġmachinery": 3814,
      "\")": 3815,
      "17": 3816,
      "22": 3817,
      "23": 3818,
      "80": 3819,
      "Histor": 3820,
      "Ma": 3821,
      "Persian": 3822,
      "Scienti": 3823,
      "ave": 3824,
      "aut": 3825,
      "amic": 3826,
      "acc": 3827,
      "ativity": 3828,
      "be": 3829,
      "bon": 3830,
      "bod": 3831,
      "band": 3832,
      "big": 3833,
      "car": 3834,
      "cri": 3835,
      "emp": 3836,
      "gal": 3837,
      "gments": 3838,
      "ira": 3839,
      "ival": 3840,
      "jo": 3841,
      "jud": 3842,
      "mmer": 3843,
      "ner": 3844,
      "nings": 3845,
      "ound": 3846,
      "ots": 3847,
      "off": 3848,
      "present": 3849,
      "plus": 3850,
      "rate": 3851,
      "rance": 3852,
      "speci": 3853,
      "tology": 3854,
      "tton": 3855,
      "uk": 3856,
      "uous": 3857,
      "ufact": 3858,
      "wan": 3859,
      "where": 3860,
      "yc": 3861,
      "Ä«": 3862,
      "Äĵ": 3863,
      "Î¯": 3864,
      "Ġ,": 3865,
      "Ġill": 3866,
      "Ġign": 3867,
      "Ġau": 3868,
      "Ġage": 3869,
      "Ġaim": 3870,
      "Ġactu": 3871,
      "inist": 3872,
      "inte": 3873,
      "instein": 3874,
      "tition": 3875,
      "tians": 3876,
      "thetic": 3877,
      "theless": 3878,
      "Ġtheme": 3879,
      "enge": 3880,
      "ended": 3881,
      "enef": 3882,
      "Ġocean": 3883,
      "alle": 3884,
      "alists": 3885,
      "alized": 3886,
      "alculus": 3887,
      "erc": 3888,
      "ero": 3889,
      "isms": 3890,
      "Ġsw": 3891,
      "Ġsal": 3892,
      "Ġsent": 3893,
      "Ġshar": 3894,
      "Ġsay": 3895,
      "Ġside": 3896,
      "Ġstab": 3897,
      "esticides": 3898,
      "Ġcli": 3899,
      "Ġcod": 3900,
      "Ġcut": 3901,
      "Ġcited": 3902,
      "Ġcensus": 3903,
      "orms": 3904,
      "Ġph": 3905,
      "Ġple": 3906,
      "Ġpig": 3907,
      "Ġpass": 3908,
      "Ġinternal": 3909,
      "Ġinstead": 3910,
      "Ġinequ": 3911,
      "Ġfil": 3912,
      "Ġfres": 3913,
      "Ġfire": 3914,
      "Ġmixed": 3915,
      "Ġtes": 3916,
      "Ġtas": 3917,
      "Ġtun": 3918,
      "art": 3919,
      "Ġbes": 3920,
      "Ġbenef": 3921,
      "asing": 3922,
      "ush": 3923,
      "usion": 3924,
      "Ġdistor": 3925,
      "Ġdances": 3926,
      "ites": 3927,
      "Ġtook": 3928,
      "Ġrepe": 3929,
      "ceed": 3930,
      "rad": 3931,
      "radition": 3932,
      "like": 3933,
      "lyph": 3934,
      "Ġnit": 3935,
      "Ġnations": 3936,
      "Ġthus": 3937,
      "ĠAust": 3938,
      "ĠAug": 3939,
      "rigor": 3940,
      "rifood": 3941,
      "Ġgar": 3942,
      "Ġgod": 3943,
      "Ġgain": 3944,
      "Ġglyph": 3945,
      "Ġconnected": 3946,
      "ident": 3947,
      "making": 3948,
      "Ġbeans": 3949,
      "Ġmath": 3950,
      "Ġexpected": 3951,
      "Ġexerc": 3952,
      "Ġla": 3953,
      "Ġsun": 3954,
      "Ġsuff": 3955,
      "ousand": 3956,
      "ĠBi": 3957,
      "ĠBhar": 3958,
      "ĠBang": 3959,
      "elines": 3960,
      "Ġcost": 3961,
      "Ġcotton": 3962,
      "Ġprove": 3963,
      "manent": 3964,
      "ĠCO": 3965,
      "ĠClo": 3966,
      "ĠClimate": 3967,
      "ĠCold": 3968,
      "icals": 3969,
      "irm": 3970,
      "luded": 3971,
      "ĠSh": 3972,
      "ĠSch": 3973,
      "Ġanthrop": 3974,
      "set": 3975,
      "ilding": 3976,
      "ilbert": 3977,
      "olk": 3978,
      "olute": 3979,
      "teen": 3980,
      "tered": 3981,
      "thematics": 3982,
      "Ġincome": 3983,
      "ĠEle": 3984,
      "ĠEinstein": 3985,
      "Ġsolutions": 3986,
      "ĠMan": 3987,
      "ĠMod": 3988,
      "ĠMay": 3989,
      "Ġmeta": 3990,
      "Ġagrifood": 3991,
      "ĠPop": 3992,
      "ĠPolic": 3993,
      "ĠInstead": 3994,
      "Ġsex": 3995,
      "ĠDar": 3996,
      "Ġworn": 3997,
      "erials": 3998,
      "ĠHom": 3999,
      "Ġhabit": 4000,
      "Ġacres": 4001,
      "Ġdire": 4002,
      "ogic": 4003,
      "Ġfost": 4004,
      "Ġfoss": 4005,
      "antine": 4006,
      "Ġranging": 4007,
      "ĠFrance": 4008,
      "Ġartis": 4009,
      "ĠNic": 4010,
      "ĠNub": 4011,
      "ĠNotes": 4012,
      "Ġparalle": 4013,
      "Ġdisp": 4014,
      "Ġintensive": 4015,
      "Ġkilo": 4016,
      "fferen": 4017,
      "connected": 4018,
      "ĠWe": 4019,
      "osen": 4020,
      "ositions": 4021,
      "izes": 4022,
      "Ġtele": 4023,
      "Ġunf": 4024,
      "Ġunion": 4025,
      "Ġunex": 4026,
      "Ġunknown": 4027,
      "âĢĻ": 4028,
      "Ġmanufact": 4029,
      "Ġmoist": 4030,
      "Ġmoving": 4031,
      "Ġchild": 4032,
      "Ġchosen": 4033,
      "ĠRo": 4034,
      "ĠRep": 4035,
      "Ġexists": 4036,
      "Ġcompon": 4037,
      "Ġcompan": 4038,
      "ropical": 4039,
      "Ġproductive": 4040,
      "Ġoblig": 4041,
      "Ġadded": 4042,
      "Ġpoints": 4043,
      "ĠOld": 4044,
      "Ġyet": 4045,
      "Ġformation": 4046,
      "Ġimpos": 4047,
      "Ġliberal": 4048,
      "Ġsustainable": 4049,
      "Ġsystemati": 4050,
      "Ġhistorically": 4051,
      "Ġempire": 4052,
      "Ġtraits": 4053,
      "acted": 4054,
      "Ġnumeral": 4055,
      "Ġunderlying": 4056,
      "arities": 4057,
      "Ġgenerate": 4058,
      "Ġqual": 4059,
      "racy": 4060,
      "Ġworkforce": 4061,
      "ĠAnn": 4062,
      "Ġregul": 4063,
      "amples": 4064,
      "Ġprede": 4065,
      "Ġprevent": 4066,
      "Ġprejud": 4067,
      "Ġgeographic": 4068,
      "angered": 4069,
      "Ġplastic": 4070,
      "Ġmostly": 4071,
      "Ġbound": 4072,
      "Ġpermanent": 4073,
      "Ġraised": 4074,
      "Ġearth": 4075,
      "Ġdecade": 4076,
      "Ġrotation": 4077,
      "Ġspecifically": 4078,
      "Ġplain": 4079,
      "Ġnote": 4080,
      "ĊĠĠĠĠĊĠĠ": 4081,
      "irect": 4082,
      "Ġconceptual": 4083,
      "Ġcausing": 4084,
      "Ġinfluences": 4085,
      "Ġaccomp": 4086,
      "Ġfoundations": 4087,
      "Ġbiased": 4088,
      "Ġsho": 4089,
      "Ġgovernments": 4090,
      "Ġgrown": 4091,
      "Ġcalend": 4092,
      "ĠGreeks": 4093,
      "vour": 4094,
      "Ġtechnical": 4095,
      "rents": 4096,
      "ĠKar": 4097,
      "ĠKep": 4098,
      "ĠKash": 4099,
      "ĠAll": 4100,
      "Ġideological": 4101,
      "Ġ2013": 4102,
      "Ġ2019": 4103,
      "ify": 4104,
      "Ġoutlo": 4105,
      "Ġsupported": 4106,
      "Ġexamination": 4107,
      "Ġ185": 4108,
      "Ġ1800": 4109,
      "Ġfocusing": 4110,
      "Ġ2023": 4111,
      "Ġ2026": 4112,
      "Ġcolon": 4113,
      "Ġscrip": 4114,
      "Ġclasses": 4115,
      "Ġmedia": 4116,
      "Ġloc": 4117,
      "Ġgrouped": 4118,
      "Ġinstitution": 4119,
      "Ġgrains": 4120,
      "Ġnormative": 4121,
      "Ġendangered": 4122,
      "Ġdefining": 4123,
      "Ġforestry": 4124,
      "Ġweight": 4125,
      "gested": 4126,
      "Ġfactual": 4127,
      "Ġtermed": 4128,
      "Ġassert": 4129,
      "Ġassumes": 4130,
      "Ġ2009": 4131,
      "Ġadvent": 4132,
      "Ġinterpreted": 4133,
      "Ġorigins": 4134,
      "Ġoriginal": 4135,
      "Ġoriginally": 4136,
      "Ġways": 4137,
      "ĠOthers": 4138,
      "Ġargument": 4139,
      "Ġpresented": 4140,
      "Ġallowed": 4141,
      "ronom": 4142,
      "Ġminim": 4143,
      "Ġgoats": 4144,
      "Ġplanets": 4145,
      "ĊĠĠĠĠĠĠĠĠĠĠ": 4146,
      "Ġautomate": 4147,
      "Ġcivil": 4148,
      "ĠPlaton": 4149,
      "Ġtruths": 4150,
      "Ġremain": 4151,
      "Ġremaining": 4152,
      "ĠTechn": 4153,
      "Ġemphasized": 4154,
      "Ġrepresented": 4155,
      "Ġcontrolled": 4156,
      "ordin": 4157,
      "Ġseek": 4158,
      "Ġrising": 4159,
      "Ġteaching": 4160,
      "Ġcontribute": 4161,
      "Ġaffecting": 4162,
      "Ġlimit": 4163,
      "Ġlimits": 4164,
      "ventional": 4165,
      "Ġsolve": 4166,
      "ĊĠĠĠĠĠĠĊĠĠĠĠĊĠĠ": 4167,
      "Ġconsiderations": 4168,
      "Ġcalculations": 4169,
      "Ġclaim": 4170,
      "rowing": 4171,
      "ĠMethod": 4172,
      "ĠMeanw": 4173,
      "Ġexpression": 4174,
      "Ġarriving": 4175,
      "Ġ1960": 4176,
      "Ġ1965": 4177,
      "Ġabstraction": 4178,
      "Ġdocumented": 4179,
      "Ġdescribes": 4180,
      "Ġdescribing": 4181,
      "Ġopen": 4182,
      "hips": 4183,
      "ĠBuddhist": 4184,
      "Ġbackground": 4185,
      "Ġcourts": 4186,
      "Ġconsistent": 4187,
      "ĠProject": 4188,
      "Ġdistinction": 4189,
      "ĊĠĠĊ": 4190,
      "Ġerr": 4191,
      "Ġoffer": 4192,
      "Ġcomputation": 4193,
      "Ġappeared": 4194,
      "Ġrich": 4195,
      "Ġspecul": 4196,
      "Ġcarbon": 4197,
      "Ġselection": 4198,
      "Ġchallenge": 4199,
      "Ġearlier": 4200,
      "lites": 4201,
      "ocratic": 4202,
      "Ġfigure": 4203,
      "Ġdeple": 4204,
      "Ġmember": 4205,
      "Ġmembers": 4206,
      "Ġcombined": 4207,
      "Ġlegis": 4208,
      "Ġprevious": 4209,
      "Ġanalytic": 4210,
      "Ġjustify": 4211,
      "Ġflood": 4212,
      "ĠExternal": 4213,
      "ĠDespite": 4214,
      "Ġcareful": 4215,
      "Ġintegrated": 4216,
      "Ġstrongly": 4217,
      "Ġdistinguished": 4218,
      "Ġpotential": 4219,
      "Ġsugges": 4220,
      "Ġacquire": 4221,
      "Ġ1980": 4222,
      "Ġprecision": 4223,
      "Ġmachines": 4224,
      "Ġconstitutional": 4225,
      "Ġnumerous": 4226,
      "Ġbecoming": 4227,
      "Ġorganisms": 4228,
      "Ġcharacteristics": 4229,
      "Ġachievement": 4230,
      "Ġauthor": 4231,
      "Ġsitu": 4232,
      "Ġsites": 4233,
      "Ġinitial": 4234,
      "Ġinsects": 4235,
      "Ġrejected": 4236,
      "Ġnearly": 4237,
      "Ġlearning": 4238,
      "Ġreplaced": 4239,
      "Ġtreatment": 4240,
      "Ġexplanation": 4241,
      "Ġchallenges": 4242,
      "Ġfuture": 4243,
      "Ġelse": 4244,
      "Ġdenial": 4245,
      "Ġhectare": 4246,
      "Ġhectares": 4247,
      "Ġartificial": 4248,
      "ĠRaj": 4249,
      "Ġabsolute": 4250,
      "ĠLivestock": 4251,
      "Ġmultiple": 4252,
      "Ġcharacterized": 4253,
      "ĠChristianity": 4254,
      "ways": 4255,
      "Ġshift": 4256,
      "Ġsimple": 4257,
      "Ġfruits": 4258,
      "Ġdamage": 4259,
      "Ġnetwork": 4260,
      "Ġconstruct": 4261,
      "Ġcooking": 4262,
      "Ġseparate": 4263,
      "Ġdisputed": 4264,
      "Ġsymbol": 4265,
      "Ġinteraction": 4266,
      "Ġconflicts": 4267,
      "Ġpastures": 4268,
      "Ġholds": 4269,
      "Ġrestric": 4270,
      "Ġrenewed": 4271,
      "helm": 4272,
      "Ġlinear": 4273,
      "Ġlinguistics": 4274,
      "ĠSafety": 4275,
      "Ġanatomically": 4276,
      "Ġperforming": 4277,
      "Ġjudge": 4278,
      "Ġrecogn": 4279,
      "Ġadvancements": 4280,
      "Ġherbicides": 4281,
      "Ġawareness": 4282,
      "Ġguidelines": 4283,
      "ÏĦÎ": 4284,
      "Ġtrigon": 4285,
      "Ġreconstru": 4286,
      "Ġcoalition": 4287,
      "Ġcoherent": 4288,
      "ĠCivil": 4289,
      "ĠGovernment": 4290,
      "Ġsymmetry": 4291,
      "Ġeventually": 4292,
      "Ġdeclined": 4293,
      "ĠVarious": 4294,
      "Ġpredominant": 4295,
      "Ġarchaeology": 4296,
      "Ġprobably": 4297,
      "Ġframework": 4298,
      "Ġsculpture": 4299,
      "Ġprices": 4300,
      "Ġpeninsular": 4301,
      "ĠCharles": 4302,
      "ĠCouncil": 4303,
      "ĠGlobal": 4304,
      "Ġspiritual": 4305,
      "ĠAcademy": 4306,
      "Ġattributed": 4307,
      "Ġexecutive": 4308,
      "Ġdiagnosis": 4309,
      "Ġsharp": 4310,
      "Ġpigs": 4311,
      "ĠPolicy": 4312,
      "Ġfossil": 4313,
      "Ġparallel": 4314,
      "ĠKepler": 4315,
      "ĊĠĠĠĠĠĠĊĠĠĠĠĊĠĠĠ": 4316,
      "ĠMeanwhile": 4317,
      ");": 4318,
      "15": 4319,
      "43": 4320,
      "61": 4321,
      "63": 4322,
      "Ara": 4323,
      "DA": 4324,
      "Dis": 4325,
      "Eucli": 4326,
      "FAO": 4327,
      "What": 4328,
      "areas": 4329,
      "aves": 4330,
      "atis": 4331,
      "atives": 4332,
      "aac": 4333,
      "by": 4334,
      "bal": 4335,
      "bel": 4336,
      "bility": 4337,
      "back": 4338,
      "cor": 4339,
      "city": 4340,
      "come": 4341,
      "creas": 4342,
      "cropping": 4343,
      "ev": 4344,
      "ele": 4345,
      "fa": 4346,
      "farm": 4347,
      "hang": 4348,
      "hats": 4349,
      "ik": 4350,
      "iv": 4351,
      "ived": 4352,
      "ken": 4353,
      "ls": 4354,
      "lin": 4355,
      "lan": 4356,
      "lations": 4357,
      "lastic": 4358,
      "mn": 4359,
      "mal": 4360,
      "mes": 4361,
      "mat": 4362,
      "mod": 4363,
      "mir": 4364,
      "mits": 4365,
      "mato": 4366,
      "nt": 4367,
      "nia": 4368,
      "niz": 4369,
      "natural": 4370,
      "oin": 4371,
      "oti": 4372,
      "pt": 4373,
      "ped": 4374,
      "produ": 4375,
      "poll": 4376,
      "rical": 4377,
      "ses": 4378,
      "sist": 4379,
      "spe": 4380,
      "some": 4381,
      "sha": 4382,
      "scal": 4383,
      "science": 4384,
      "tre": 4385,
      "ulo": 4386,
      "utical": 4387,
      "ums": 4388,
      "uck": 4389,
      "win": 4390,
      "xic": 4391,
      "yal": 4392,
      "yan": 4393,
      "year": 4394,
      "zi": 4395,
      "zes": 4396,
      "zard": 4397,
      "zantine": 4398,
      "·Î¼Î±": 4399,
      "Â°": 4400,
      "Ã¡": 4401,
      "Å«": 4402,
      "Åį": 4403,
      "Î¸Î": 4404,
      "á¼": 4405,
      "Ġ$": 4406,
      "Ġ}": 4407,
      "Ġâ": 4408,
      "Ġlob": 4409,
      "Ġiron": 4410,
      "thic": 4411,
      "that": 4412,
      "third": 4413,
      "thane": 4414,
      "inten": 4415,
      "inator": 4416,
      "induced": 4417,
      "onic": 4418,
      "oned": 4419,
      "onable": 4420,
      "rew": 4421,
      "Ġtheological": 4422,
      "eneral": 4423,
      "encies": 4424,
      "Ġoil": 4425,
      "aly": 4426,
      "aling": 4427,
      "alla": 4428,
      "Ġsk": 4429,
      "Ġsqu": 4430,
      "Ġsim": 4431,
      "Ġsari": 4432,
      "Ġscep": 4433,
      "Ġsheep": 4434,
      "nder": 4435,
      "esc": 4436,
      "Ġcome": 4437,
      "Ġcred": 4438,
      "Ġcry": 4439,
      "Ġcell": 4440,
      "Ġcrust": 4441,
      "ani": 4442,
      "anks": 4443,
      "ortion": 4444,
      "ortu": 4445,
      "organ": 4446,
      "orial": 4447,
      "ictions": 4448,
      "Ġpra": 4449,
      "Ġput": 4450,
      "Ġpet": 4451,
      "Ġpharma": 4452,
      "Ġfi": 4453,
      "Ġfes": 4454,
      "Ġfas": 4455,
      "Ġfals": 4456,
      "Ġfolk": 4457,
      "Ġwent": 4458,
      "Ġwet": 4459,
      "Ġwisdom": 4460,
      "atal": 4461,
      "atab": 4462,
      "ators": 4463,
      "Ġmi": 4464,
      "Ġmass": 4465,
      "Ġmuse": 4466,
      "Ġmyth": 4467,
      "Ġmight": 4468,
      "Ġmental": 4469,
      "Ġmigration": 4470,
      "Ġten": 4471,
      "Ġtons": 4472,
      "arian": 4473,
      "ingh": 4474,
      "Ġblo": 4475,
      "Ġbri": 4476,
      "Ġbrought": 4477,
      "rolog": 4478,
      "rohistory": 4479,
      "Ġelim": 4480,
      "Ġelites": 4481,
      "uscrip": 4482,
      "usband": 4483,
      "Ġhon": 4484,
      "Ġhom": 4485,
      "Ġhub": 4486,
      "Ġhard": 4487,
      "Ġhouse": 4488,
      "Ġhusband": 4489,
      "itness": 4490,
      "itable": 4491,
      "Ġisol": 4492,
      "cid": 4493,
      "Ġtoler": 4494,
      "Ġtoward": 4495,
      "Ġtomato": 4496,
      "Ġreje": 4497,
      "Ġremo": 4498,
      "Ġrevolution": 4499,
      "Ġreview": 4500,
      "omad": 4501,
      "tice": 4502,
      "uler": 4503,
      "ulated": 4504,
      "celer": 4505,
      "ceutical": 4506,
      "ravid": 4507,
      "lif": 4508,
      "lian": 4509,
      "liance": 4510,
      "life": 4511,
      "lified": 4512,
      "ĠImp": 4513,
      "stances": 4514,
      "chem": 4515,
      "Ġname": 4516,
      "Ġnomad": 4517,
      "Ġthousand": 4518,
      "ĠApp": 4519,
      "Ġconvers": 4520,
      "Ġcondition": 4521,
      "Ġconventional": 4522,
      "Ġforce": 4523,
      "Ġformer": 4524,
      "Ġbeaut": 4525,
      "odot": 4526,
      "Ġlay": 4527,
      "ateg": 4528,
      "ĠBay": 4529,
      "Ġcovered": 4530,
      "Ġcoordin": 4531,
      "verty": 4532,
      "Ġpromp": 4533,
      "Ġproject": 4534,
      "mance": 4535,
      "ĠCan": 4536,
      "ĠCant": 4537,
      "ĠCha": 4538,
      "ĠCalculus": 4539,
      "Ġdeter": 4540,
      "Ġdevo": 4541,
      "Ġdepar": 4542,
      "utational": 4543,
      "ĠSy": 4544,
      "ĠSuch": 4545,
      "ĠSimil": 4546,
      "ĠSyste": 4547,
      "ĠSingh": 4548,
      "Ġanxi": 4549,
      "semb": 4550,
      "Ġ1200": 4551,
      "Ġhistoric": 4552,
      "tefact": 4553,
      "rict": 4554,
      "adily": 4555,
      "ĠEpic": 4556,
      "Ġlies": 4557,
      "Ġsovere": 4558,
      "ĠMul": 4559,
      "ĠMong": 4560,
      "hilosophy": 4561,
      "Ġmeet": 4562,
      "entially": 4563,
      "Ġagreements": 4564,
      "Ġagronom": 4565,
      "Ġconsum": 4566,
      "Ġconsoli": 4567,
      "Ġ23": 4568,
      "Ġ27": 4569,
      "ĠPe": 4570,
      "ĠPer": 4571,
      "ĠPar": 4572,
      "ĠPla": 4573,
      "ĠProduction": 4574,
      "ĠPesticides": 4575,
      "ĠIncreas": 4576,
      "pped": 4577,
      "Ġsec": 4578,
      "Ġseem": 4579,
      "Ġseeds": 4580,
      "Ġsevere": 4581,
      "ĠDal": 4582,
      "ĠDao": 4583,
      "ĠDirect": 4584,
      "ĠDravid": 4585,
      "Ġinfrast": 4586,
      "Ġvis": 4587,
      "Ġvia": 4588,
      "Ġsubdi": 4589,
      "Ġsubareas": 4590,
      "Ġstri": 4591,
      "Ġstated": 4592,
      "Ġstories": 4593,
      "ĠGod": 4594,
      "ĠGene": 4595,
      "ĠGhats": 4596,
      "Ġenough": 4597,
      "Ġenacted": 4598,
      "astri": 4599,
      "ĠHen": 4600,
      "ĠHuman": 4601,
      "Ġhazard": 4602,
      "Ġacre": 4603,
      "Ġacadem": 4604,
      "Ġacceler": 4605,
      "umber": 4606,
      "umstances": 4607,
      "antus": 4608,
      "ott": 4609,
      "ured": 4610,
      "ĠFore": 4611,
      "Ġarr": 4612,
      "Ġartefact": 4613,
      "ĠNon": 4614,
      "ĠNuclear": 4615,
      "ĠNob": 4616,
      "ĠNumer": 4617,
      "Ġpartition": 4618,
      "Ġdisag": 4619,
      "Ġinten": 4620,
      "Ġintens": 4621,
      "Ġkill": 4622,
      "ffs": 4623,
      "ĠWest": 4624,
      "Ġrivers": 4625,
      "Ġ193": 4626,
      "Ġ1900": 4627,
      "Ġ1930": 4628,
      "Ġ1951": 4629,
      "inds": 4630,
      "osate": 4631,
      "osion": 4632,
      "oscience": 4633,
      "Ġcontrad": 4634,
      "Ġunif": 4635,
      "âĢ²": 4636,
      "Ġattitudes": 4637,
      "Ġmanif": 4638,
      "Ġmanuscrip": 4639,
      "Ġchur": 4640,
      "Ġchick": 4641,
      "ĠThrough": 4642,
      "Ġexisting": 4643,
      "Ġcompil": 4644,
      "Ġcomprom": 4645,
      "Ġcomposed": 4646,
      "ernatural": 4647,
      "rophic": 4648,
      "Ġproducing": 4649,
      "Ġabund": 4650,
      "Ġpoverty": 4651,
      "ĠOf": 4652,
      "Ġinfinity": 4653,
      "ĠConstitu": 4654,
      "key": 4655,
      "ructure": 4656,
      "Ġknowing": 4657,
      "Ġmethodological": 4658,
      "Ġmethodologies": 4659,
      "Ġground": 4660,
      "Ġincreases": 4661,
      "arie": 4662,
      "Ġgenerated": 4663,
      "violence": 4664,
      "ĠLand": 4665,
      "ĠLogic": 4666,
      "ticip": 4667,
      "Ġeconomies": 4668,
      "Ġworking": 4669,
      "Ġmilk": 4670,
      "cessive": 4671,
      "Ġpref": 4672,
      "Ġprep": 4673,
      "Ġprehistory": 4674,
      "Ġreliable": 4675,
      "Ġbasin": 4676,
      "Ġdefine": 4677,
      "Ġinteract": 4678,
      "Ġintervention": 4679,
      "Ġexamples": 4680,
      "Ġplate": 4681,
      "Ġplural": 4682,
      "Ġperfor": 4683,
      "Ġtermin": 4684,
      "Ġdiffer": 4685,
      "Ġdiffers": 4686,
      "Ġreplication": 4687,
      "Ġcounting": 4688,
      "Ġjob": 4689,
      "Ġdecla": 4690,
      "Ġrobo": 4691,
      "Ġtransition": 4692,
      "Ġtransmission": 4693,
      "Ġtranslation": 4694,
      "Ġdiscri": 4695,
      "Ġconceptions": 4696,
      "Ġgeometries": 4697,
      "Ġdifference": 4698,
      "culture": 4699,
      "ounting": 4700,
      "Ġglobe": 4701,
      "Ġaccount": 4702,
      "rants": 4703,
      "Ġ39": 4704,
      "Ġ3000": 4705,
      "ĠMajor": 4706,
      "ĠMaury": 4707,
      "Ġconsidering": 4708,
      "Ġshort": 4709,
      "Ġgoverning": 4710,
      "ĠHistori": 4711,
      "Ġpeer": 4712,
      "Ġsplit": 4713,
      "Ġshape": 4714,
      "Ġdesign": 4715,
      "Ġdespite": 4716,
      "Ġhighest": 4717,
      "Ġrefer": 4718,
      "Ġreform": 4719,
      "Ġreforms": 4720,
      "Ġunderstood": 4721,
      "rency": 4722,
      "Ġmarri": 4723,
      "Ġmarkets": 4724,
      "ĠAlbert": 4725,
      "Ġ2018": 4726,
      "everal": 4727,
      "ifers": 4728,
      "Ġcreativity": 4729,
      "apons": 4730,
      "Ġ75": 4731,
      "Ġelect": 4732,
      "Ġexamined": 4733,
      "Ġstatements": 4734,
      "Ġfocuses": 4735,
      "Ġparticle": 4736,
      "Ġ2024": 4737,
      "Ġ2025": 4738,
      "There": 4739,
      "gorith": 4740,
      "mining": 4741,
      "Ġcollabor": 4742,
      "orship": 4743,
      "ĠSciences": 4744,
      "Ġ400": 4745,
      "Ġloose": 4746,
      "Ġequival": 4747,
      "Ġinside": 4748,
      "Ġinsights": 4749,
      "Ġgrav": 4750,
      "Ġgrain": 4751,
      "Ġgrazing": 4752,
      "Ġsettle": 4753,
      "Ġemploys": 4754,
      "Ġweather": 4755,
      "Ġweapons": 4756,
      "Ġleader": 4757,
      "Ġface": 4758,
      "Ġfaith": 4759,
      "Ġfavour": 4760,
      "Ġorganized": 4761,
      "Ġorganizations": 4762,
      "Ġvalues": 4763,
      "ĠIslands": 4764,
      "ĠIsaac": 4765,
      "Ġasser": 4766,
      "Ġ2007": 4767,
      "Ġmaterials": 4768,
      "Ġemploying": 4769,
      "Ġtrees": 4770,
      "ĠByzantine": 4771,
      "Ġarguing": 4772,
      "tigious": 4773,
      "Ġpresentation": 4774,
      "Ġcomplete": 4775,
      "ronze": 4776,
      "Ġpreser": 4777,
      "Ġpreserve": 4778,
      "Ġprestigious": 4779,
      "Ġcorn": 4780,
      "Ġcorpor": 4781,
      "Ġcurves": 4782,
      "Ġcurios": 4783,
      "ĊĠĠĠĠĠĠĠĠĊĠĠĠĠĠĠĠ": 4784,
      "Ġconcerning": 4785,
      "Ġsurve": 4786,
      "Ġstart": 4787,
      "Ġstarts": 4788,
      "ignty": 4789,
      "Ġcitiz": 4790,
      "Ġstrugg": 4791,
      "Ġplanting": 4792,
      "ographical": 4793,
      "ographers": 4794,
      "Ġserving": 4795,
      "Ġpowers": 4796,
      "Ġpublication": 4797,
      "Ġfarmer": 4798,
      "Ġreduce": 4799,
      "Ġreducing": 4800,
      "Ġinvestigate": 4801,
      "Ġinvestigating": 4802,
      "Ġencoun": 4803,
      "Ġcontinent": 4804,
      "Ġcontinue": 4805,
      "Ġemphasize": 4806,
      "Ġrepresentation": 4807,
      "Ġresource": 4808,
      "Ġextends": 4809,
      "Ġteachers": 4810,
      "Ġcontributing": 4811,
      "olithic": 4812,
      "Ġsatis": 4813,
      "Ġsafe": 4814,
      "ultane": 4815,
      "Ġhappens": 4816,
      "Ġ1998": 4817,
      "Ġdominance": 4818,
      "ĠBrief": 4819,
      "Ġ1500": 4820,
      "Ġincorrect": 4821,
      "Ġexplaining": 4822,
      "Ġtextbo": 4823,
      "Ġcultivated": 4824,
      "Ġmillennia": 4825,
      "Ġtransformations": 4826,
      "Ġconsiderable": 4827,
      "ibniz": 4828,
      "touch": 4829,
      "Ġclaimed": 4830,
      "Ġengage": 4831,
      "Ġ1964": 4832,
      "Ġpostulate": 4833,
      "Ġpostmodern": 4834,
      "Ġcommunities": 4835,
      "Ġnutrients": 4836,
      "Ġnutritional": 4837,
      "Ġextant": 4838,
      "Ġactivity": 4839,
      "Ġachieved": 4840,
      "Ġcourt": 4841,
      "ĠProto": 4842,
      "Ġstrateg": 4843,
      "Ġkeep": 4844,
      "Ġscholarly": 4845,
      "Ġcomplexity": 4846,
      "Ġliterature": 4847,
      "Ġerosion": 4848,
      "Ġenter": 4849,
      "Ġstem": 4850,
      "Ġsteadily": 4851,
      "Ġpurely": 4852,
      "Ġeveryday": 4853,
      "Ġbeginnings": 4854,
      "Ġevaluation": 4855,
      "Ġevaluate": 4856,
      "Ġrelationships": 4857,
      "Ġpredicted": 4858,
      "Ġvehic": 4859,
      "Ġcarried": 4860,
      "ĠSea": 4861,
      "Ġselective": 4862,
      "Ġselected": 4863,
      "Ġpossible": 4864,
      "Ġoccurs": 4865,
      "dramas": 4866,
      "Ġturned": 4867,
      "Ġdepends": 4868,
      "Ġmeasures": 4869,
      "Ġlegal": 4870,
      "Ġencompasses": 4871,
      "place": 4872,
      "Ġspreading": 4873,
      "ominated": 4874,
      "Ġlasted": 4875,
      "Ġcovering": 4876,
      "ĠExamples": 4877,
      "ĠDevelop": 4878,
      "ĠDescar": 4879,
      "ĠLeibniz": 4880,
      "Ġintegers": 4881,
      "Ġreflects": 4882,
      "Ġrequirements": 4883,
      "Ġtested": 4884,
      "Ġtesting": 4885,
      "Ġeasily": 4886,
      "Ġsuggested": 4887,
      "Ġacquired": 4888,
      "Ġcontinuous": 4889,
      "199": 4890,
      "knowledge": 4891,
      "Ġaddresses": 4892,
      "Ġrespon": 4893,
      "Ġnumerical": 4894,
      "Ġdecrease": 4895,
      "Ġachievements": 4896,
      "Ġsmaller": 4897,
      "Ġcategory": 4898,
      "Ġcategories": 4899,
      "Ġauthority": 4900,
      "Ġaesthetic": 4901,
      "Ġparents": 4902,
      "Ġreached": 4903,
      "Ġprogram": 4904,
      "Ġprogramm": 4905,
      "ĠCommon": 4906,
      "ĠGeor": 4907,
      "Ġparliament": 4908,
      "Ġtreatments": 4909,
      "Ġexplanations": 4910,
      "Ġinstruction": 4911,
      "Ġbuilding": 4912,
      "Ġbodies": 4913,
      "ĠDiscrete": 4914,
      "ĠLike": 4915,
      "ĠVedic": 4916,
      "ĠVedanta": 4917,
      "Ġcharacterize": 4918,
      "Ġrelatively": 4919,
      "bio": 4920,
      "Ġshif": 4921,
      "Ġintuition": 4922,
      "Ġintuitions": 4923,
      "Ġeffe": 4924,
      "Ġefforts": 4925,
      "Ġnetworks": 4926,
      "Ġcooked": 4927,
      "Ġprotected": 4928,
      "ĠEconomic": 4929,
      "Ġvarying": 4930,
      "ĠGermany": 4931,
      "Ġensure": 4932,
      "Ġdisputes": 4933,
      "Ġsymbolic": 4934,
      "Ġinteractions": 4935,
      "Ġaccurate": 4936,
      "Ġaccuracy": 4937,
      "Ġconflict": 4938,
      "ĠMarxism": 4939,
      "Ġaquifers": 4940,
      "Ġservices": 4941,
      "Ġclari": 4942,
      "Ġpressure": 4943,
      "ediately": 4944,
      "Ġwaist": 4945,
      "Ġderived": 4946,
      "mathbb": 4947,
      "ĠBoth": 4948,
      "ophantus": 4949,
      "ĠDifferen": 4950,
      "ĠGuj": 4951,
      "Ġendemic": 4952,
      "Ġenabled": 4953,
      "Ġenabling": 4954,
      "Ġobserved": 4955,
      "Ġdistribution": 4956,
      "ĠPlateau": 4957,
      "ĠPhilosophical": 4958,
      "ĠPhilosophers": 4959,
      "hwater": 4960,
      "Ġcereals": 4961,
      "Ġsupernatural": 4962,
      "ĠClassical": 4963,
      "Ġanswer": 4964,
      "Ġvillage": 4965,
      "ĠHerodot": 4966,
      "ĠWilhelm": 4967,
      "ĠUniversity": 4968,
      "ĠSource": 4969,
      "Ġnecessary": 4970,
      "Ġconclusion": 4971,
      "Ġscarcity": 4972,
      "Ġbelieve": 4973,
      "Ġsynthesis": 4974,
      "Ġresponsible": 4975,
      "Ġcircumstances": 4976,
      "Ġfrequently": 4977,
      "ĠĊĠĠĊĠĠĠĠĊĠĠĠĠĠĠĊĠĠĠĠĠĠĠ": 4978,
      "stitute": 4979,
      "Ġcleared": 4980,
      "Ġplough": 4981,
      "Ġhortic": 4982,
      "Ġcontamination": 4983,
      "ĠSpecific": 4984,
      "ĠMoreover": 4985,
      "ĠGolden": 4986,
      "Ġencyclopa": 4987,
      "ĠHindust": 4988,
      "Ġchronic": 4989,
      "Ġobjectivity": 4990,
      "Ġrespectively": 4991,
      "Ġdefeated": 4992,
      "Ġratios": 4993,
      "Ġrapidly": 4994,
      "ĠSocrates": 4995,
      "ĠEnvironmental": 4996,
      "Ġautonomous": 4997,
      "Ġindicate": 4998,
      "Ġoptimization": 4999,
      "Ġgathering": 5000,
      "Ġthinkers": 5001,
      "Ġpolynomial": 5002,
      "gatherers": 5003,
      "Ġhybrid": 5004,
      "Ġmanipulation": 5005,
      "Scientific": 5006,
      "amics": 5007,
      "body": 5008,
      "biguous": 5009,
      "Ġactually": 5010,
      "Ġsentences": 5011,
      "Ġfreshwater": 5012,
      "raditional": 5013,
      "Ġnitro": 5014,
      "ĠAustral": 5015,
      "ĠAugust": 5016,
      "Ġglyphosate": 5017,
      "ĠClose": 5018,
      "Ġanthropology": 5019,
      "ĠPopper": 5020,
      "ĠDarwin": 5021,
      "ĠNubians": 5022,
      "Ġcompanies": 5023,
      "ĠAnnales": 5024,
      "Ġpredecess": 5025,
      "Ġprejudices": 5026,
      "Ġcalendar": 5027,
      "ĠKashmir": 5028,
      "Ġlocations": 5029,
      "Ġminimizing": 5030,
      "ĠPlatonism": 5031,
      "Ġsituations": 5032,
      "Ġelsewhere": 5033,
      "Ġsymbols": 5034,
      "Ġrestrictions": 5035,
      "Ġsharply": 5036,
      "Arabic": 5037,
      "Discrete": 5038,
      "Euclidean": 5039,
      "scale": 5040,
      "ulous": 5041,
      "Î¸Î·Î¼Î±": 5042,
      "Ġlobb": 5043,
      "Ġsquash": 5044,
      "Ġcrypt": 5045,
      "Ġpharmaceutical": 5046,
      "Ġmuseums": 5047,
      "Ġhusbandry": 5048,
      "Ġrejection": 5049,
      "Ġnomadic": 5050,
      "Ġbeauty": 5051,
      "Ġcoordinates": 5052,
      "ĠCantor": 5053,
      "Ġanxiety": 5054,
      "Ġsovereignty": 5055,
      "ĠMongol": 5056,
      "ĠDravidian": 5057,
      "Ġinfrastructure": 5058,
      "Ġhazardous": 5059,
      "Ġartefacts": 5060,
      "ĠNobel": 5061,
      "Ġperformance": 5062,
      "Ġterminology": 5063,
      "Ġcuriosity": 5064,
      "Ġcitizens": 5065,
      "ultaneously": 5066,
      "ĠDescartes": 5067,
      "ĠHerodotus": 5068,
      "03": 5069,
      "07": 5070,
      "13": 5071,
      "14": 5072,
      "28": 5073,
      "37": 5074,
      "38": 5075,
      "400": 5076,
      "60": 5077,
      "65": 5078,
      "73": 5079,
      "99": 5080,
      "At": 5081,
      "Ary": 5082,
      "Comp": 5083,
      "Di": 5084,
      "From": 5085,
      "HO": 5086,
      "Is": 5087,
      "Khw": 5088,
      "Me": 5089,
      "PA": 5090,
      "PO": 5091,
      "PP": 5092,
      "Pro": 5093,
      "Science": 5094,
      "af": 5095,
      "aic": 5096,
      "aci": 5097,
      "ams": 5098,
      "after": 5099,
      "auss": 5100,
      "br": 5101,
      "bile": 5102,
      "bacc": 5103,
      "class": 5104,
      "dar": 5105,
      "ders": 5106,
      "density": 5107,
      "dominated": 5108,
      "ee": 5109,
      "ez": 5110,
      "ems": 5111,
      "eper": 5112,
      "ford": 5113,
      "go": 5114,
      "gu": 5115,
      "gth": 5116,
      "gre": 5117,
      "gar": 5118,
      "glo": 5119,
      "growing": 5120,
      "her": 5121,
      "had": 5122,
      "hind": 5123,
      "hood": 5124,
      "hok": 5125,
      "hold": 5126,
      "hÄģ": 5127,
      "ii": 5128,
      "ior": 5129,
      "iver": 5130,
      "ipp": 5131,
      "ium": 5132,
      "ives": 5133,
      "itivism": 5134,
      "ki": 5135,
      "ker": 5136,
      "ll": 5137,
      "lature": 5138,
      "lades": 5139,
      "lanted": 5140,
      "mu": 5141,
      "my": 5142,
      "mun": 5143,
      "more": 5144,
      "met": 5145,
      "mary": 5146,
      "mographic": 5147,
      "ners": 5148,
      "nam": 5149,
      "not": 5150,
      "nature": 5151,
      "olo": 5152,
      "ole": 5153,
      "och": 5154,
      "ocent": 5155,
      "ohistory": 5156,
      "pur": 5157,
      "pow": 5158,
      "peri": 5159,
      "pay": 5160,
      "pac": 5161,
      "pired": 5162,
      "pending": 5163,
      "sub": 5164,
      "skh": 5165,
      "tt": 5166,
      "tly": 5167,
      "tol": 5168,
      "tations": 5169,
      "tled": 5170,
      "tru": 5171,
      "tellectual": 5172,
      "tched": 5173,
      "uj": 5174,
      "uz": 5175,
      "uis": 5176,
      "uine": 5177,
      "uhn": 5178,
      "vision": 5179,
      "water": 5180,
      "ylen": 5181,
      "yond": 5182,
      "zon": 5183,
      "zone": 5184,
      "¹Î": 5185,
      "½Î": 5186,
      "¿Ï": 5187,
      "Ã§": 5188,
      "Ã¨": 5189,
      "Ïĥ": 5190,
      "ĠX": 5191,
      "Ġ[": 5192,
      "Ġu": 5193,
      "ĠÃ": 5194,
      "Ġvers": 5195,
      "thics": 5196,
      "Ġaro": 5197,
      "Ġaci": 5198,
      "Ġade": 5199,
      "Ġaimed": 5200,
      "ini": 5201,
      "inct": 5202,
      "inant": 5203,
      "tique": 5204,
      "onal": 5205,
      "theore": 5206,
      "rec": 5207,
      "rely": 5208,
      "rests": 5209,
      "Ġthematic": 5210,
      "enes": 5211,
      "eness": 5212,
      "Ġox": 5213,
      "Ġozone": 5214,
      "alw": 5215,
      "alid": 5216,
      "alled": 5217,
      "alys": 5218,
      "eric": 5219,
      "ermat": 5220,
      "ison": 5221,
      "Ġsti": 5222,
      "Ġsed": 5223,
      "Ġsla": 5224,
      "Ġseri": 5225,
      "Ġsligh": 5226,
      "ndom": 5227,
      "especially": 5228,
      "esticide": 5229,
      "Ġcity": 5230,
      "Ġchi": 5231,
      "Ġcropping": 5232,
      "Ġcyc": 5233,
      "Ġoffic": 5234,
      "anch": 5235,
      "anag": 5236,
      "anied": 5237,
      "ancing": 5238,
      "ancial": 5239,
      "oro": 5240,
      "oral": 5241,
      "orter": 5242,
      "icus": 5243,
      "icists": 5244,
      "Ġpul": 5245,
      "Ġpie": 5246,
      "Ġpap": 5247,
      "Ġpack": 5248,
      "Ġphas": 5249,
      "edic": 5250,
      "Ġindu": 5251,
      "Ġinternet": 5252,
      "Ġfel": 5253,
      "Ġfla": 5254,
      "Ġfear": 5255,
      "Ġfell": 5256,
      "Ġfiction": 5257,
      "Ġwin": 5258,
      "Ġwid": 5259,
      "Ġwelf": 5260,
      "Ġwear": 5261,
      "Ġwage": 5262,
      "Ġwood": 5263,
      "Ġwinter": 5264,
      "Ġmer": 5265,
      "Ġmist": 5266,
      "Ġmere": 5267,
      "Ġmys": 5268,
      "Ġmotorized": 5269,
      "Ġtal": 5270,
      "Ġtri": 5271,
      "Ġtari": 5272,
      "Ġtried": 5273,
      "Ġtropical": 5274,
      "arter": 5275,
      "ariz": 5276,
      "arting": 5277,
      "Ġbal": 5278,
      "Ġban": 5279,
      "Ġbul": 5280,
      "Ġband": 5281,
      "Ġbure": 5282,
      "Ġbig": 5283,
      "roup": 5284,
      "Ġet": 5285,
      "Ġemission": 5286,
      "Ġepistem": 5287,
      "Ġefficient": 5288,
      "Ġegg": 5289,
      "Ġelabor": 5290,
      "asts": 5291,
      "asions": 5292,
      "asters": 5293,
      "used": 5294,
      "ustain": 5295,
      "usiness": 5296,
      "Ġdon": 5297,
      "Ġdol": 5298,
      "Ġdry": 5299,
      "Ġdrought": 5300,
      "Ġdrew": 5301,
      "Ġdatab": 5302,
      "Ġhund": 5303,
      "Ġhome": 5304,
      "Ġhear": 5305,
      "Ġhered": 5306,
      "Ġhold": 5307,
      "iter": 5308,
      "iting": 5309,
      "itations": 5310,
      "itated": 5311,
      "cible": 5312,
      "cilit": 5313,
      "Ġtown": 5314,
      "Ġtobacc": 5315,
      "lock": 5316,
      "Ġrend": 5317,
      "Ġreven": 5318,
      "Ġrevel": 5319,
      "omm": 5320,
      "lex": 5321,
      "lective": 5322,
      "lemy": 5323,
      "urrent": 5324,
      "tica": 5325,
      "ticisation": 5326,
      "uls": 5327,
      "uled": 5328,
      "ultural": 5329,
      "ulder": 5330,
      "ultry": 5331,
      "ulner": 5332,
      "isted": 5333,
      "isting": 5334,
      "ray": 5335,
      "rain": 5336,
      "rative": 5337,
      "lihood": 5338,
      "ĠIf": 5339,
      "Ġnames": 5340,
      "Ġthor": 5341,
      "ĠAk": 5342,
      "ĠAz": 5343,
      "ĠAma": 5344,
      "Ġget": 5345,
      "Ġconnect": 5346,
      "ctural": 5347,
      "ctors": 5348,
      "idars": 5349,
      "mag": 5350,
      "ĠTod": 5351,
      "ĠTow": 5352,
      "ĠThar": 5353,
      "ĠTang": 5354,
      "ĠTreat": 5355,
      "Ġbeef": 5356,
      "Ġbeyond": 5357,
      "Ġmaize": 5358,
      "Ġmaxim": 5359,
      "hered": 5360,
      "Ġexcep": 5361,
      "Ġlla": 5362,
      "Ġsummer": 5363,
      "ouses": 5364,
      "ĠBas": 5365,
      "ĠBut": 5366,
      "ĠBig": 5367,
      "ĠBronze": 5368,
      "opern": 5369,
      "elesc": 5370,
      "Ġcoined": 5371,
      "Ġcooperation": 5372,
      "Ġproced": 5373,
      "Ġpropose": 5374,
      "ĠCo": 5375,
      "ĠCre": 5376,
      "ĠCri": 5377,
      "ĠCot": 5378,
      "ĠCitations": 5379,
      "ĠCopern": 5380,
      "Ġalter": 5381,
      "Ġalways": 5382,
      "Ġalgorith": 5383,
      "Ġalpac": 5384,
      "Ġdele": 5385,
      "Ġdemographic": 5386,
      "Ġorally": 5387,
      "Ġorthod": 5388,
      "utrophic": 5389,
      "Ġonce": 5390,
      "Ġonwards": 5391,
      "Ġonset": 5392,
      "iring": 5393,
      "ĠSp": 5394,
      "ĠSri": 5395,
      "ĠShe": 5396,
      "ĠSund": 5397,
      "ĠShi": 5398,
      "ĠSte": 5399,
      "ĠSim": 5400,
      "ĠStill": 5401,
      "ĠSheep": 5402,
      "ĠSeveral": 5403,
      "unding": 5404,
      "ĠIndones": 5405,
      "ĠIndira": 5406,
      "Ġ100": 5407,
      "une": 5408,
      "ung": 5409,
      "Ġhistorian": 5410,
      "hies": 5411,
      "ola": 5412,
      "olate": 5413,
      "ricket": 5414,
      "thematical": 5415,
      "ĠsciÅį": 5416,
      "resist": 5417,
      "resents": 5418,
      "resident": 5419,
      "qua": 5420,
      "quate": 5421,
      "quest": 5422,
      "ada": 5423,
      "adi": 5424,
      "ading": 5425,
      "Ġincenti": 5426,
      "Ġincomp": 5427,
      "ĠEdu": 5428,
      "ĠEach": 5429,
      "ĠEffects": 5430,
      "ĠEpistemology": 5431,
      "ĠEuler": 5432,
      "Ġlight": 5433,
      "hya": 5434,
      "Ġsole": 5435,
      "Ġsoli": 5436,
      "ĠMal": 5437,
      "ĠMeas": 5438,
      "ĠMotorized": 5439,
      "ĠMyan": 5440,
      "ometric": 5441,
      "Ġmeant": 5442,
      "Ġmetaphys": 5443,
      "Ġcommentary": 5444,
      "Ġages": 5445,
      "Ġagent": 5446,
      "Ġconsult": 5447,
      "Ġconserve": 5448,
      "ored": 5449,
      "ricultural": 5450,
      "Ġ24": 5451,
      "Ġ29": 5452,
      "dients": 5453,
      "dification": 5454,
      "ĠPra": 5455,
      "ĠPers": 5456,
      "ĠPhys": 5457,
      "ĠPublic": 5458,
      "ĠPto": 5459,
      "ĠPalla": 5460,
      "timony": 5461,
      "ĠInstitute": 5462,
      "ĠIntellectual": 5463,
      "Ġseed": 5464,
      "Ġseals": 5465,
      "Ġseven": 5466,
      "ĠDed": 5467,
      "ĠDep": 5468,
      "Ġwaste": 5469,
      "amed": 5470,
      "Ġcosm": 5471,
      "Ġcosine": 5472,
      "Ġcosmology": 5473,
      "Ġcentre": 5474,
      "Ġvict": 5475,
      "Ġvulner": 5476,
      "Ġsubt": 5477,
      "Ġsubst": 5478,
      "Ġsubdu": 5479,
      "Ġstress": 5480,
      "Ġstood": 5481,
      "Ġstren": 5482,
      "Ġstory": 5483,
      "Ġstrict": 5484,
      "ĠGup": 5485,
      "ĠGeneral": 5486,
      "ĠGauss": 5487,
      "Ġenlightenment": 5488,
      "astes": 5489,
      "ĠHis": 5490,
      "ĠHilbert": 5491,
      "Ġaccid": 5492,
      "Ġdied": 5493,
      "Ġexports": 5494,
      "andoned": 5495,
      "ĠFron": 5496,
      "ĠFried": 5497,
      "ĠFormal": 5498,
      "ĠFermat": 5499,
      "Ġarms": 5500,
      "Ġarise": 5501,
      "ĠNat": 5502,
      "ĠNever": 5503,
      "ĠNutri": 5504,
      "ĠNumber": 5505,
      "Ġparties": 5506,
      "Ġpartially": 5507,
      "Ġparticip": 5508,
      "Ġdishes": 5509,
      "Ġintensity": 5510,
      "Ġkame": 5511,
      "ĠWhe": 5512,
      "ĠWater": 5513,
      "ĠWild": 5514,
      "ĠWhen": 5515,
      "ĠWidespread": 5516,
      "igrants": 5517,
      "imes": 5518,
      "iming": 5519,
      "osi": 5520,
      "Ġcontend": 5521,
      "Ġcontras": 5522,
      "Ġuncon": 5523,
      "Ġunpre": 5524,
      "Ġunited": 5525,
      "Ġunits": 5526,
      "Ġunspeci": 5527,
      "Ġatom": 5528,
      "tivation": 5529,
      "Ġmanaged": 5530,
      "teness": 5531,
      "Ġmotion": 5532,
      "Ġmole": 5533,
      "Ġmobile": 5534,
      "Ġchanging": 5535,
      "ĠThanks": 5536,
      "ĠRel": 5537,
      "ĠRig": 5538,
      "ĠRiver": 5539,
      "Ġscientist": 5540,
      "Ġ2050": 5541,
      "Ġ2030": 5542,
      "reasonable": 5543,
      "Ġcompany": 5544,
      "Ġcompris": 5545,
      "Ġcompati": 5546,
      "ays": 5547,
      "Ġproduct": 5548,
      "Ġmodelling": 5549,
      "Ġapply": 5550,
      "Ġability": 5551,
      "Ġabandoned": 5552,
      "Ġadverse": 5553,
      "Ġpoin": 5554,
      "Ġpoint": 5555,
      "Ġpoultry": 5556,
      "ĠOcc": 5557,
      "ĠOrigin": 5558,
      "Ġinfinites": 5559,
      "Ġimperial": 5560,
      "Ġsustained": 5561,
      "haz": 5562,
      "ruction": 5563,
      "abad": 5564,
      "abilities": 5565,
      "upational": 5566,
      "Ġtraces": 5567,
      "Ġnatal": 5568,
      "cedented": 5569,
      "Ġsomething": 5570,
      "Ġcamp": 5571,
      "Ġunderm": 5572,
      "ĠUr": 5573,
      "ĠUnder": 5574,
      "archus": 5575,
      "nial": 5576,
      "nition": 5577,
      "nities": 5578,
      "viet": 5579,
      "ĠLank": 5580,
      "ticians": 5581,
      "wealth": 5582,
      "Ġmilking": 5583,
      "ensorship": 5584,
      "Ġrelied": 5585,
      "Ġreliance": 5586,
      "Ġreliability": 5587,
      "Ġestimate": 5588,
      "Ġpopulous": 5589,
      "Ġinterse": 5590,
      "Ġinterconnected": 5591,
      "Ġintercropping": 5592,
      "Ġplastics": 5593,
      "ĠAssemb": 5594,
      "ĠAshok": 5595,
      "Ġperce": 5596,
      "ustries": 5597,
      "agricultural": 5598,
      "Ġrail": 5599,
      "Ġraising": 5600,
      "Ġrarely": 5601,
      "Ġrandom": 5602,
      "Ġreported": 5603,
      "Ġcount": 5604,
      "Ġdecomp": 5605,
      "Ġdecline": 5606,
      "ĠSocial": 5607,
      "ĠSoviet": 5608,
      "ccan": 5609,
      "Ġlandmar": 5610,
      "efly": 5611,
      "Ġroles": 5612,
      "Ġroots": 5613,
      "Ġplains": 5614,
      "Ġgeneralizations": 5615,
      "Ġnothing": 5616,
      "Ġpriority": 5617,
      "Ġnaturalism": 5618,
      "Ġnews": 5619,
      "Ġnewly": 5620,
      "Ġexperienced": 5621,
      "Ġneigh": 5622,
      "Ġ55": 5623,
      "Ġ500": 5624,
      "ĠJud": 5625,
      "cultures": 5626,
      "cultivation": 5627,
      "ĠVer": 5628,
      "aint": 5629,
      "ounced": 5630,
      "Ġmainstream": 5631,
      "Ġaccounting": 5632,
      "Ġbiote": 5633,
      "tably": 5634,
      "Ġgoverned": 5635,
      "Ġinteger": 5636,
      "Ġinterests": 5637,
      "ĠHistorically": 5638,
      "Ġresulted": 5639,
      "Ġsphere": 5640,
      "Ġshares": 5641,
      "Ġdeserti": 5642,
      "Ġheav": 5643,
      "Ġstable": 5644,
      "Ġvarieties": 5645,
      "oked": 5646,
      "ĠKa": 5647,
      "ĠKon": 5648,
      "ĠKuhn": 5649,
      "ĠAlternative": 5650,
      "Ġsigned": 5651,
      "Ġwritings": 5652,
      "Ġdistance": 5653,
      "Ġtopology": 5654,
      "Ġ2012": 5655,
      "Ġ2015": 5656,
      "Ġ2017": 5657,
      "ifiab": 5658,
      "Ġcreate": 5659,
      "Ġcreative": 5660,
      "Ġconcluded": 5661,
      "Ġelected": 5662,
      "Ġ188": 5663,
      "Ġparticles": 5664,
      "Ġinvalid": 5665,
      "Ġfeel": 5666,
      "Ġfeud": 5667,
      "Ġfeeding": 5668,
      "ĠAmericans": 5669,
      "ctiveness": 5670,
      "Ġanalysing": 5671,
      "Ġ41": 5672,
      "Ġ64": 5673,
      "Ġlost": 5674,
      "Ġequality": 5675,
      "Ġrecording": 5676,
      "entialism": 5677,
      "Ġsignificance": 5678,
      "Ġgrand": 5679,
      "Ġviolence": 5680,
      "Ġenvironments": 5681,
      "formal": 5682,
      "Ġfollows": 5683,
      "Ġweb": 5684,
      "Ġwealth": 5685,
      "Ġcritic": 5686,
      "Ġcritique": 5687,
      "Ġfav": 5688,
      "Ġfacilit": 5689,
      "ĠStarting": 5690,
      "Ġmodels": 5691,
      "Ġprocessing": 5692,
      "Ġ2003": 5693,
      "Ġ2006": 5694,
      "Ġ2008": 5695,
      "Ġinterprets": 5696,
      "Ġinterpretative": 5697,
      "Ġmatters": 5698,
      "Ġviewpo": 5699,
      "Ġpositivism": 5700,
      "Ġintroducing": 5701,
      "Ġargued": 5702,
      "nex": 5703,
      "Ġpresenting": 5704,
      "Ġcompleted": 5705,
      "Ġaftermath": 5706,
      "Ġpresents": 5707,
      "Ġpresupp": 5708,
      "Ġgoes": 5709,
      "ĠSouthwest": 5710,
      "Ġ900": 5711,
      "Ġcurrency": 5712,
      "Ġbreeds": 5713,
      "Ġethn": 5714,
      "Ġrequiring": 5715,
      "Ġplanet": 5716,
      "Ġautomates": 5717,
      "Ġsurround": 5718,
      "Ġsurplus": 5719,
      "Ġcloth": 5720,
      "Ġtaught": 5721,
      "ĠEmpires": 5722,
      "ĠRecent": 5723,
      "vaita": 5724,
      "ĠPlant": 5725,
      "ĠPlato": 5726,
      "Ġimproving": 5727,
      "Ġplanted": 5728,
      "ographics": 5729,
      "henjo": 5730,
      "Ġtaking": 5731,
      "ĠTemp": 5732,
      "Ġinformal": 5733,
      "Ġencour": 5734,
      "Ġemphasising": 5735,
      "orders": 5736,
      "Ġconfirm": 5737,
      "Ġrisks": 5738,
      "Ġlosses": 5739,
      "lusion": 5740,
      "Ġ80": 5741,
      "Ġentity": 5742,
      "Ġaffects": 5743,
      "Ġoperation": 5744,
      "Ġmulti": 5745,
      "ĠBuddha": 5746,
      "parts": 5747,
      "Ġawards": 5748,
      "Ġprinting": 5749,
      "Ġexplained": 5750,
      "Ġexplains": 5751,
      "ĠNortheast": 5752,
      "Ġgenetically": 5753,
      "Ġcultivating": 5754,
      "Ġpercentage": 5755,
      "Ġtransformation": 5756,
      "Ġshaping": 5757,
      "display": 5758,
      "rowed": 5759,
      "Ġengaged": 5760,
      "Ġruling": 5761,
      "Ġ1962": 5762,
      "Ġcapac": 5763,
      "Ġcapita": 5764,
      "Ġcapabilities": 5765,
      "Ġinterpretations": 5766,
      "Ġurbanisation": 5767,
      "Ġextent": 5768,
      "ĠEgyptians": 5769,
      "Ġmechanisms": 5770,
      "Ġuniversity": 5771,
      "Ġadopt": 5772,
      "Ġquantities": 5773,
      "Ġquantity": 5774,
      "Ġestimates": 5775,
      "rently": 5776,
      "Ġcollective": 5777,
      "Ġcollected": 5778,
      "Ġcollecting": 5779,
      "curs": 5780,
      "Ġfrag": 5781,
      "Ġdrivers": 5782,
      "Ġdriven": 5783,
      "Ġnationalism": 5784,
      "Ġscholar": 5785,
      "Ġministers": 5786,
      "Ġhelps": 5787,
      "Ġhelping": 5788,
      "Ġmorality": 5789,
      "Ġmorally": 5790,
      "Ġbegins": 5791,
      "Ġvaries": 5792,
      "Ġrationalism": 5793,
      "Ġcomputing": 5794,
      "Ġecology": 5795,
      "Ġecological": 5796,
      "Ġguide": 5797,
      "Ġparadox": 5798,
      "Ġinstituted": 5799,
      "Äģá¹": 5800,
      "Ġfindings": 5801,
      "Ġwildlife": 5802,
      "ĠCompar": 5803,
      "Ġdepending": 5804,
      "Ġantibio": 5805,
      "Ġcombinator": 5806,
      "Ġ1949": 5807,
      "Ġlegi": 5808,
      "Ġtechnique": 5809,
      "Ġanalyse": 5810,
      "Ġapproximation": 5811,
      "Ġshowing": 5812,
      "Ġjustified": 5813,
      "Ġsimilarities": 5814,
      "ĠDeccan": 5815,
      "ĠDesert": 5816,
      "Ġexplores": 5817,
      "Ġexplored": 5818,
      "ĠNeo": 5819,
      "Ġcareers": 5820,
      "Ġreflective": 5821,
      "Ġreflected": 5822,
      "Ġnorthwest": 5823,
      "Ġastronomical": 5824,
      "Ġdistinguishing": 5825,
      "Ġpotato": 5826,
      "Ġmention": 5827,
      "Ġsugar": 5828,
      "Ġalongside": 5829,
      "Ġdiscussions": 5830,
      "ĠAristote": 5831,
      "Ġtaxes": 5832,
      "disciplines": 5833,
      "Ġchemical": 5834,
      "Internet": 5835,
      "Ġmono": 5836,
      "Ġgases": 5837,
      "Ġcompeti": 5838,
      "Ġsynthetic": 5839,
      "Ġaddressed": 5840,
      "Ġdecreases": 5841,
      "Ġdecreasing": 5842,
      "Ġvalidity": 5843,
      "Ġoccupation": 5844,
      "Ġimprovement": 5845,
      "obar": 5846,
      "prof": 5847,
      "Ġcircular": 5848,
      "Ġiniti": 5849,
      "Ġinitially": 5850,
      "Ġfinal": 5851,
      "Ġfinancial": 5852,
      "Ġhunger": 5853,
      "Ġreaching": 5854,
      "matik": 5855,
      "Ġbelonged": 5856,
      "Ġbelonging": 5857,
      "Ġprograms": 5858,
      "ĠCommun": 5859,
      "ĠPrimary": 5860,
      "ĠGeography": 5861,
      "Ġlearn": 5862,
      "Ġlearned": 5863,
      "Ġterritory": 5864,
      "Ġreplacing": 5865,
      "Ġappearance": 5866,
      "ĠMesopotamians": 5867,
      "Ġtitle": 5868,
      "Ġverification": 5869,
      "Ġinstruments": 5870,
      "Ġfuels": 5871,
      "Ġburning": 5872,
      "Ġburden": 5873,
      "Ġelli": 5874,
      "Ġdraw": 5875,
      "Ġdrain": 5876,
      "Ġexcav": 5877,
      "Ġexclusive": 5878,
      "Ġdetermined": 5879,
      "ĠSubject": 5880,
      "Ġhistoriographical": 5881,
      "ĠPolitics": 5882,
      "ĠFurthermore": 5883,
      "ĠWithin": 5884,
      "ĠConfucian": 5885,
      "Ġchoices": 5886,
      "Ġproducer": 5887,
      "Ġabsence": 5888,
      "Ġmarketing": 5889,
      "Ġecosystem": 5890,
      "Agricultural": 5891,
      "Ġafford": 5892,
      "Ġfalla": 5893,
      "Ġfruit": 5894,
      "Ġprotection": 5895,
      "ĠCarl": 5896,
      "Ġdecimal": 5897,
      "ĠEconomy": 5898,
      "ĠMedicine": 5899,
      "Ġensuring": 5900,
      "ĠJohan": 5901,
      "ĠJanata": 5902,
      "Ġcontroversy": 5903,
      "Ġlabeling": 5904,
      "Ġmeasured": 5905,
      "ĠMarxist": 5906,
      "Ġsuccessful": 5907,
      "ĠHimalayan": 5908,
      "ethics": 5909,
      "Ġaquatic": 5910,
      "Ġservice": 5911,
      "Ġclearly": 5912,
      "Ġpressures": 5913,
      "Ġfemale": 5914,
      "Ġfeminist": 5915,
      "Ġholding": 5916,
      "Ġharmony": 5917,
      "Ġconcentrate": 5918,
      "Ġlacking": 5919,
      "Ġcoastal": 5920,
      "Ġdevast": 5921,
      "Ġanatomy": 5922,
      "ĠDiophantus": 5923,
      "ĠDemoc": 5924,
      "ĠDemographics": 5925,
      "ĠGuinea": 5926,
      "Ġarmies": 5927,
      "Ġchains": 5928,
      "Ġimplement": 5929,
      "Ġimplemented": 5930,
      "Ġperformed": 5931,
      "Ġhighlight": 5932,
      "Ġhighlighting": 5933,
      "Ġrecognition": 5934,
      "ĠArchae": 5935,
      "Ġherbicide": 5936,
      "Ġimmediately": 5937,
      "Ġimmigrants": 5938,
      "Ġopportu": 5939,
      "Ġsilk": 5940,
      "Ġcereal": 5941,
      "Ġmicrohistory": 5942,
      "Ġlisted": 5943,
      "Ġsummar": 5944,
      "ĠClassification": 5945,
      "Ġvirtues": 5946,
      "Ġvillages": 5947,
      "ĠGreen": 5948,
      "ĠRussell": 5949,
      "Ġadministration": 5950,
      "Ġoverlap": 5951,
      "Ġoverlaps": 5952,
      "Ġcounterparts": 5953,
      "ĠSources": 5954,
      "Ġmargins": 5955,
      "Ġconclusions": 5956,
      "Ġscarce": 5957,
      "Ġbelieved": 5958,
      "Ġsurvives": 5959,
      "Ġcircles": 5960,
      "ĠStatistical": 5961,
      "ĠPythagorean": 5962,
      "ĠPythagoreans": 5963,
      "Î¼Î±Î¸Î·Î¼Î±": 5964,
      "Ġlengths": 5965,
      "Ġdemocratic": 5966,
      "Ġdemocracy": 5967,
      "ĠJapanese": 5968,
      "interpre": 5969,
      "Ġfull": 5970,
      "Ġfully": 5971,
      "Ġwrong": 5972,
      "Ġtribal": 5973,
      "Ġborrowed": 5974,
      "Ġdestruction": 5975,
      "Ġreceive": 5976,
      "Ġconstraints": 5977,
      "ficially": 5978,
      "ĠMohenjo": 5979,
      "ĠPrincip": 5980,
      "Ġdimension": 5981,
      "Ġdimensions": 5982,
      "Ġmotivated": 5983,
      "ĠOceania": 5984,
      "Ġresidents": 5985,
      "Ġshorta": 5986,
      "Ġsettings": 5987,
      "Ġopinion": 5988,
      "Ġopinions": 5989,
      "ĠArabian": 5990,
      "Ġreturned": 5991,
      "Ġpseudoscience": 5992,
      "ĠBabylonians": 5993,
      "History": 5994,
      "Mathematics": 5995,
      "being": 5996,
      "Äĵmatik": 5997,
      "Î¯Î±": 5998,
      "Ġillness": 5999,
      "Ġignored": 6000,
      "Ġaudi": 6001,
      "Ġstability": 6002,
      "Ġclimatic": 6003,
      "Ġpassed": 6004,
      "Ġinequality": 6005,
      "Ġfilms": 6006,
      "Ġtestimony": 6007,
      "Ġtasks": 6008,
      "Ġbesides": 6009,
      "Ġbenefit": 6010,
      "Ġrepeated": 6011,
      "Ġgods": 6012,
      "ĠmathÄĵmatik": 6013,
      "Ġexercised": 6014,
      "ĠBharat": 6015,
      "ĠBanglades": 6016,
      "teenth": 6017,
      "ĠElements": 6018,
      "ĠHomo": 6019,
      "Ġhabitat": 6020,
      "Ġfoster": 6021,
      "Ġartistic": 6022,
      "ĠNicobar": 6023,
      "Ġkilomet": 6024,
      "Ġunexpected": 6025,
      "Ġchildren": 6026,
      "Ġcomponents": 6027,
      "Ġimposes": 6028,
      "Ġsystematized": 6029,
      "Ġboundaries": 6030,
      "Ġaccompanied": 6031,
      "ĠKarl": 6032,
      "Ġoutlook": 6033,
      "Ġ1858": 6034,
      "ĊĠĠĠĠĠĠĠĠĠĠĠ": 6035,
      "ĠMethodological": 6036,
      "Ġerror": 6037,
      "Ġspeculative": 6038,
      "Ġdepletion": 6039,
      "ÏĦÎ¹Î": 6040,
      "Ġtrigonometric": 6041,
      "ĠCivilisation": 6042,
      "bellion": 6043,
      "factual": 6044,
      "pollination": 6045,
      "sistence": 6046,
      "alytic": 6047,
      "Ġcells": 6048,
      "Ġpetro": 6049,
      "Ġfibers": 6050,
      "Ġfestiv": 6051,
      "rology": 6052,
      "Ġelimination": 6053,
      "Ġhomological": 6054,
      "Ġtolerance": 6055,
      "Ġconversion": 6056,
      "Ġprompted": 6057,
      "Ġprojected": 6058,
      "ĠChamp": 6059,
      "Ġdevotion": 6060,
      "ĠSimilarly": 6061,
      "Ġagronomy": 6062,
      "Ġconsolid": 6063,
      "ĠPeru": 6064,
      "ĠIncreasing": 6065,
      "Ġsecure": 6066,
      "Ġseverely": 6067,
      "Ġacademies": 6068,
      "ĠForeign": 6069,
      "Ġdisagreements": 6070,
      "Ġ1935": 6071,
      "Ġuniform": 6072,
      "Ġmanuscript": 6073,
      "Ġchuridars": 6074,
      "Ġchickens": 6075,
      "Ġcompromise": 6076,
      "Ġabundant": 6077,
      "ĠOften": 6078,
      "ĠConstituent": 6079,
      "Ġjobs": 6080,
      "Ġdeclared": 6081,
      "Ġdiscrimination": 6082,
      "ĠMaurya": 6083,
      "ĠHistoriographers": 6084,
      "Ġmarriages": 6085,
      "Ġequivalent": 6086,
      "Ġsettlement": 6087,
      "Ġcompletely": 6088,
      "Ġcorporations": 6089,
      "Ġencountered": 6090,
      "Ġsatisfy": 6091,
      "Ġtextbook": 6092,
      "touchability": 6093,
      "ĠDevelopment": 6094,
      "Ġresponse": 6095,
      "ĠCommonwealth": 6096,
      "Ġeffectiveness": 6097,
      "ĠDifferent": 6098,
      "ĠGujar": 6099,
      "Ġhorticulture": 6100,
      "Ġchronicles": 6101,
      "ĠAustralia": 6102,
      "ĠClosely": 6103,
      "Ġlobbying": 6104,
      "Aryan": 6105,
      "Khwariz": 6106,
      "daro": 6107,
      "guard": 6108,
      "ocentric": 6109,
      "toler": 6110,
      "ylene": 6111,
      "Ġarose": 6112,
      "Ġacidification": 6113,
      "theorems": 6114,
      "alysis": 6115,
      "Ġslightly": 6116,
      "Ġoffice": 6117,
      "Ġwider": 6118,
      "Ġwelfare": 6119,
      "Ġtariffs": 6120,
      "Ġbulk": 6121,
      "Ġdatabas": 6122,
      "Ġtobacco": 6123,
      "Ġrevenues": 6124,
      "ĠAmazon": 6125,
      "ĠTowards": 6126,
      "ĠTreaty": 6127,
      "Ġllamas": 6128,
      "ĠCotton": 6129,
      "Ġalpacas": 6130,
      "Ġorthodox": 6131,
      "utrophication": 6132,
      "ĠIndonesia": 6133,
      "Ġincentives": 6134,
      "Ġincomple": 6135,
      "ĠEducation": 6136,
      "ĠMyanmar": 6137,
      "Ġmetaphysical": 6138,
      "ĠPtolemy": 6139,
      "Ġvulnerable": 6140,
      "Ġstrength": 6141,
      "ĠFront": 6142,
      "ĠFriedrich": 6143,
      "ĠNevertheless": 6144,
      "Ġkameez": 6145,
      "Ġcontrasts": 6146,
      "Ġunprecedented": 6147,
      "Ġunspecified": 6148,
      "ĠOccupational": 6149,
      "Ġinfinitesimal": 6150,
      "ĠAssembly": 6151,
      "ĠAshoka": 6152,
      "Ġdesertification": 6153,
      "ifiability": 6154,
      "Ġpresuppositions": 6155,
      "displaystyle": 6156,
      "Ġcapacity": 6157,
      "Ġopportunities": 6158,
      "Î¼Î±Î¸Î·Î¼Î±ÏĦÎ¹Î": 6159,
      "ĠBangladesh": 6160,
      "Ġkilometres": 6161,
      "Khwarizmi": 6162,
      "Î¼Î±Î¸Î·Î¼Î±ÏĦÎ¹Îº": 6163,
      "\";": 6164,
      "%)": 6165,
      "')": 6166,
      "'t": 6167,
      ",\"": 6168,
      "100": 6169,
      "29": 6170,
      "34": 6171,
      "322": 6172,
      "42": 6173,
      "46": 6174,
      "48": 6175,
      "64": 6176,
      "600": 6177,
      "79": 6178,
      "700": 6179,
      "907": 6180,
      "AA": 6181,
      "AS": 6182,
      "Al": 6183,
      "Ar": 6184,
      "As": 6185,
      "Are": 6186,
      "Areas": 6187,
      "Before": 6188,
      "CA": 6189,
      "Ch": 6190,
      "Con": 6191,
      "Can": 6192,
      "Cong": 6193,
      "Climate": 6194,
      "During": 6195,
      "EP": 6196,
      "Ex": 6197,
      "Epistemology": 6198,
      "Gange": 6199,
      "Govern": 6200,
      "Ghaz": 6201,
      "HG": 6202,
      "IPO": 6203,
      "List": 6204,
      "Marie": 6205,
      "NA": 6206,
      "Nor": 6207,
      "NEP": 6208,
      "Out": 6209,
      "Roman": 6210,
      "SA": 6211,
      "Socratic": 6212,
      "Th": 6213,
      "Un": 6214,
      "aË": 6215,
      "ama": 6216,
      "air": 6217,
      "ail": 6218,
      "app": 6219,
      "aism": 6220,
      "avid": 6221,
      "aving": 6222,
      "aem": 6223,
      "actions": 6224,
      "axi": 6225,
      "ba": 6226,
      "bn": 6227,
      "bre": 6228,
      "bar": 6229,
      "bly": 6230,
      "bach": 6231,
      "bour": 6232,
      "bitions": 6233,
      "bai": 6234,
      "buck": 6235,
      "cre": 6236,
      "can": 6237,
      "cut": 6238,
      "cla": 6239,
      "crop": 6240,
      "cover": 6241,
      "cological": 6242,
      "cend": 6243,
      "cap": 6244,
      "cticides": 6245,
      "clock": 6246,
      "castes": 6247,
      "dri": 6248,
      "del": 6249,
      "dides": 6250,
      "down": 6251,
      "diction": 6252,
      "dden": 6253,
      "ees": 6254,
      "ech": 6255,
      "eta": 6256,
      "ection": 6257,
      "east": 6258,
      "each": 6259,
      "econom": 6260,
      "even": 6261,
      "eered": 6262,
      "eticide": 6263,
      "ecological": 6264,
      "fast": 6265,
      "fest": 6266,
      "fect": 6267,
      "fred": 6268,
      "fried": 6269,
      "field": 6270,
      "fiable": 6271,
      "gi": 6272,
      "ging": 6273,
      "gent": 6274,
      "gun": 6275,
      "gates": 6276,
      "gni": 6277,
      "gles": 6278,
      "gmati": 6279,
      "graph": 6280,
      "greg": 6281,
      "gadi": 6282,
      "ho": 6283,
      "hr": 6284,
      "hu": 6285,
      "hical": 6286,
      "hol": 6287,
      "ham": 6288,
      "hism": 6289,
      "hering": 6290,
      "iology": 6291,
      "ials": 6292,
      "iens": 6293,
      "iliz": 6294,
      "iries": 6295,
      "jay": 6296,
      "janta": 6297,
      "jpay": 6298,
      "ka": 6299,
      "kn": 6300,
      "kti": 6301,
      "kind": 6302,
      "kara": 6303,
      "lal": 6304,
      "lur": 6305,
      "lad": 6306,
      "lating": 6307,
      "lash": 6308,
      "laton": 6309,
      "lastics": 6310,
      "men": 6311,
      "mma": 6312,
      "mical": 6313,
      "mber": 6314,
      "mism": 6315,
      "mme": 6316,
      "mill": 6317,
      "mises": 6318,
      "no": 6319,
      "ns": 6320,
      "nat": 6321,
      "nas": 6322,
      "ntic": 6323,
      "nutri": 6324,
      "natic": 6325,
      "oa": 6326,
      "ois": 6327,
      "ove": 6328,
      "oam": 6329,
      "ober": 6330,
      "oire": 6331,
      "outh": 6332,
      "oinc": 6333,
      "oint": 6334,
      "pa": 6335,
      "pr": 6336,
      "plo": 6337,
      "ple": 6338,
      "pul": 6339,
      "pse": 6340,
      "pred": 6341,
      "pass": 6342,
      "press": 6343,
      "pticism": 6344,
      "phere": 6345,
      "philosophy": 6346,
      "rat": 6347,
      "rus": 6348,
      "rut": 6349,
      "rations": 6350,
      "rum": 6351,
      "rating": 6352,
      "ranted": 6353,
      "sm": 6354,
      "son": 6355,
      "stic": 6356,
      "shy": 6357,
      "site": 6358,
      "sible": 6359,
      "simil": 6360,
      "scienti": 6361,
      "shad": 6362,
      "ski": 6363,
      "sustain": 6364,
      "tas": 6365,
      "tments": 6366,
      "tors": 6367,
      "tters": 6368,
      "telling": 6369,
      "trical": 6370,
      "tÅ«": 6371,
      "uf": 6372,
      "uel": 6373,
      "ude": 6374,
      "uber": 6375,
      "uties": 6376,
      "vin": 6377,
      "vis": 6378,
      "vic": 6379,
      "vate": 6380,
      "vens": 6381,
      "vable": 6382,
      "ws": 6383,
      "well": 6384,
      "western": 6385,
      "wise": 6386,
      "xti": 6387,
      "yment": 6388,
      "yers": 6389,
      "yam": 6390,
      "yew": 6391,
      "ydides": 6392,
      "yrus": 6393,
      "zation": 6394,
      "zines": 6395,
      "}}": 6396,
      "¶del": 6397,
      "Â£": 6398,
      "Ã¦": 6399,
      "ÃŃ": 6400,
      "Ã¶del": 6401,
      "Åĳ": 6402,
      "ËĪ": 6403,
      "Î¬": 6404,
      "Î¿Ï": 6405,
      "á¸": 6406,
      "á½": 6407,
      "Ġ-": 6408,
      "Ġ/": 6409,
      "Ġ\\": 6410,
      "Ġq": 6411,
      "Ġic": 6412,
      "Ġ),": 6413,
      "Ġlying": 6414,
      "Ġá¼": 6415,
      "Ġedic": 6416,
      "ĠÂ£": 6417,
      "Ĥ¹": 6418,
      "ĪĴ": 6419,
      "thir": 6420,
      "tham": 6421,
      "Ġara": 6422,
      "Ġast": 6423,
      "Ġapar": 6424,
      "Ġalig": 6425,
      "inth": 6426,
      "inated": 6427,
      "inating": 6428,
      "inization": 6429,
      "tier": 6430,
      "tiful": 6431,
      "tified": 6432,
      "tiev": 6433,
      "ont": 6434,
      "onia": 6435,
      "onhar": 6436,
      "onds": 6437,
      "ontology": 6438,
      "thed": 6439,
      "theory": 6440,
      "thentic": 6441,
      "reational": 6442,
      "repre": 6443,
      "reats": 6444,
      "relation": 6445,
      "represent": 6446,
      "Ġther": 6447,
      "Ġtheology": 6448,
      "Ġtherap": 6449,
      "ener": 6450,
      "enistic": 6451,
      "ennium": 6452,
      "enna": 6453,
      "Ġour": 6454,
      "Ġori": 6455,
      "alo": 6456,
      "aled": 6457,
      "alies": 6458,
      "alian": 6459,
      "alities": 6460,
      "alised": 6461,
      "alnutri": 6462,
      "eror": 6463,
      "erst": 6464,
      "erally": 6465,
      "erals": 6466,
      "erves": 6467,
      "ertil": 6468,
      "isen": 6469,
      "isition": 6470,
      "isons": 6471,
      "isdiction": 6472,
      "Ġshe": 6473,
      "Ġstim": 6474,
      "Ġsine": 6475,
      "Ġspect": 6476,
      "Ġsize": 6477,
      "Ġsales": 6478,
      "Ġsedi": 6479,
      "Ġsoph": 6480,
      "Ġsizes": 6481,
      "esian": 6482,
      "Ġcop": 6483,
      "Ġclos": 6484,
      "Ġcust": 6485,
      "Ġcall": 6486,
      "Ġclim": 6487,
      "Ġceas": 6488,
      "Ġcele": 6489,
      "Ġcuis": 6490,
      "Ġcensorship": 6491,
      "anj": 6492,
      "ann": 6493,
      "antu": 6494,
      "antial": 6495,
      "anford": 6496,
      "oras": 6497,
      "orce": 6498,
      "order": 6499,
      "orable": 6500,
      "orks": 6501,
      "oralism": 6502,
      "icated": 6503,
      "icians": 6504,
      "Ġpr": 6505,
      "Ġpan": 6506,
      "Ġped": 6507,
      "Ġpil": 6508,
      "Ġpion": 6509,
      "Ġpay": 6510,
      "Ġport": 6511,
      "Ġperen": 6512,
      "Ġpace": 6513,
      "Ġpants": 6514,
      "Ġpict": 6515,
      "Ġpush": 6516,
      "edom": 6517,
      "eders": 6518,
      "edded": 6519,
      "eduled": 6520,
      "Ġinsu": 6521,
      "Ġinef": 6522,
      "Ġinven": 6523,
      "Ġinade": 6524,
      "Ġinduced": 6525,
      "Ġinev": 6526,
      "Ġinorgan": 6527,
      "Ġingre": 6528,
      "Ġinher": 6529,
      "tionally": 6530,
      "Ġfit": 6531,
      "Ġfod": 6532,
      "Ġflan": 6533,
      "Ġfatal": 6534,
      "Ġfertil": 6535,
      "Ġwro": 6536,
      "Ġwise": 6537,
      "Ġwool": 6538,
      "Ġwages": 6539,
      "Ġwinds": 6540,
      "aten": 6541,
      "atts": 6542,
      "Ġmes": 6543,
      "Ġmom": 6544,
      "Ġmig": 6545,
      "Ġmerg": 6546,
      "Ġmalnutri": 6547,
      "Ġtand": 6548,
      "Ġtell": 6549,
      "Ġtrial": 6550,
      "Ġtelesc": 6551,
      "Ġtuber": 6552,
      "aras": 6553,
      "arith": 6554,
      "ardi": 6555,
      "arÃ©": 6556,
      "ingent": 6557,
      "Ġbad": 6558,
      "Ġbred": 6559,
      "Ġbone": 6560,
      "Ġbott": 6561,
      "Ġborders": 6562,
      "Ġblur": 6563,
      "Ġbonds": 6564,
      "roid": 6565,
      "roach": 6566,
      "roxim": 6567,
      "rospe": 6568,
      "ropped": 6569,
      "Ġeigh": 6570,
      "Ġeffect": 6571,
      "Ġeight": 6572,
      "Ġemit": 6573,
      "Ġepic": 6574,
      "Ġemmer": 6575,
      "Ġemits": 6576,
      "Ġeutrophication": 6577,
      "Ġeyew": 6578,
      "Ġeaten": 6579,
      "asi": 6580,
      "asid": 6581,
      "aste": 6582,
      "asties": 6583,
      "asive": 6584,
      "ascent": 6585,
      "asticism": 6586,
      "entum": 6587,
      "entary": 6588,
      "Ġder": 6589,
      "Ġdur": 6590,
      "Ġdate": 6591,
      "Ġdog": 6592,
      "Ġdang": 6593,
      "Ġdru": 6594,
      "Ġdual": 6595,
      "Ġdense": 6596,
      "Ġdeduc": 6597,
      "Ġdensity": 6598,
      "Ġduties": 6599,
      "Ġdropped": 6600,
      "Ġho": 6601,
      "Ġhist": 6602,
      "Ġhere": 6603,
      "Ġhors": 6604,
      "Ġhots": 6605,
      "Ġhouses": 6606,
      "itch": 6607,
      "itter": 6608,
      "itte": 6609,
      "itative": 6610,
      "ituals": 6611,
      "itoring": 6612,
      "itarian": 6613,
      "Ġtox": 6614,
      "Ġtouch": 6615,
      "love": 6616,
      "lomatic": 6617,
      "location": 6618,
      "loyment": 6619,
      "Ġred": 6620,
      "Ġreve": 6621,
      "Ġrecyc": 6622,
      "Ġreinterpre": 6623,
      "Ġrebellion": 6624,
      "omb": 6625,
      "omology": 6626,
      "omestic": 6627,
      "ommon": 6628,
      "omalies": 6629,
      "let": 6630,
      "leading": 6631,
      "uri": 6632,
      "urt": 6633,
      "uran": 6634,
      "uration": 6635,
      "urch": 6636,
      "urta": 6637,
      "urations": 6638,
      "urie": 6639,
      "urisdiction": 6640,
      "ulties": 6641,
      "ulates": 6642,
      "ulating": 6643,
      "isters": 6644,
      "rays": 6645,
      "raits": 6646,
      "lims": 6647,
      "liam": 6648,
      "lime": 6649,
      "liography": 6650,
      "ĠIran": 6651,
      "ĠIbn": 6652,
      "sted": 6653,
      "stant": 6654,
      "chaem": 6655,
      "vex": 6656,
      "vely": 6657,
      "====": 6658,
      "Ġnorm": 6659,
      "Ġnative": 6660,
      "Ġnav": 6661,
      "Ġnomin": 6662,
      "Ġnormal": 6663,
      "Ġninth": 6664,
      "Ġnascent": 6665,
      "Ġthreats": 6666,
      "ĠAD": 6667,
      "ĠAut": 6668,
      "ĠAdi": 6669,
      "ĠAreas": 6670,
      "ĠAper": 6671,
      "ĠAesthe": 6672,
      "ĠAwards": 6673,
      "ĠAbb": 6674,
      "ĠAlex": 6675,
      "ĠAjanta": 6676,
      "ĠAvic": 6677,
      "ĠAchaem": 6678,
      "rix": 6679,
      "riors": 6680,
      "riya": 6681,
      "Ġgent": 6682,
      "Ġgig": 6683,
      "Ġgame": 6684,
      "Ġgames": 6685,
      "Ġgraph": 6686,
      "Ġgranted": 6687,
      "Ġconic": 6688,
      "Ġconne": 6689,
      "Ġconstant": 6690,
      "ctober": 6691,
      "Ġasked": 6692,
      "Ġforced": 6693,
      "Ġforcing": 6694,
      "Ġforward": 6695,
      "Ġfortified": 6696,
      "made": 6697,
      "major": 6698,
      "matis": 6699,
      "maput": 6700,
      "maize": 6701,
      "mathematics": 6702,
      "ĠTre": 6703,
      "ĠTer": 6704,
      "ĠTra": 6705,
      "ĠTig": 6706,
      "ĠTyp": 6707,
      "ĠTib": 6708,
      "ĠTraditional": 6709,
      "Ġbeau": 6710,
      "Ġbehind": 6711,
      "Ġbegun": 6712,
      "Ġmand": 6713,
      "Ġmamm": 6714,
      "Ġmaga": 6715,
      "head": 6716,
      "hemical": 6717,
      "Ġexhi": 6718,
      "Ġexha": 6719,
      "Ġexact": 6720,
      "Ġexpect": 6721,
      "Ġexcessive": 6722,
      "Ġlenti": 6723,
      "tery": 6724,
      "terdisciplinary": 6725,
      "Ġsupre": 6726,
      "Ġsuper": 6727,
      "ĠBal": 6728,
      "ĠBed": 6729,
      "ĠBro": 6730,
      "ĠBolog": 6731,
      "ĠBha": 6732,
      "ĠBranch": 6733,
      "ĠBib": 6734,
      "ĠBios": 6735,
      "opic": 6736,
      "opped": 6737,
      "oplaton": 6738,
      "eland": 6739,
      "ellig": 6740,
      "Ġcoasts": 6741,
      "Ġcogni": 6742,
      "Ġcows": 6743,
      "veri": 6744,
      "Ġpropor": 6745,
      "Ġproceed": 6746,
      "mann": 6747,
      "manuj": 6748,
      "ĠCam": 6749,
      "ĠCup": 6750,
      "ĠCoc": 6751,
      "ĠCattle": 6752,
      "ĠCulture": 6753,
      "ĠCaves": 6754,
      "ĠCultural": 6755,
      "ĠCricket": 6756,
      "ĠCurie": 6757,
      "Ġaltern": 6758,
      "Ġalliance": 6759,
      "Ġaltru": 6760,
      "mplified": 6761,
      "Ġdeep": 6762,
      "Ġdemon": 6763,
      "Ġdeeper": 6764,
      "Ġorbit": 6765,
      "utes": 6766,
      "uting": 6767,
      "utch": 6768,
      "utative": 6769,
      "utside": 6770,
      "Ġonions": 6771,
      "Ġongo": 6772,
      "irt": 6773,
      "iricism": 6774,
      "ĠSm": 6775,
      "ĠSar": 6776,
      "ĠStu": 6777,
      "ĠSil": 6778,
      "ĠSun": 6779,
      "ĠSol": 6780,
      "ĠSam": 6781,
      "ĠSum": 6782,
      "ĠSant": 6783,
      "ĠSind": 6784,
      "ĠSab": 6785,
      "ĠSep": 6786,
      "ĠSyn": 6787,
      "ĠShan": 6788,
      "ĠSultanate": 6789,
      "Ġances": 6790,
      "Ġannex": 6791,
      "Ġangles": 6792,
      "Ġanomalies": 6793,
      "underst": 6794,
      "see": 6795,
      "seeds": 6796,
      "selective": 6797,
      "ille": 6798,
      "illed": 6799,
      "ĠIndep": 6800,
      "ĠTheore": 6801,
      "Ġhistoricism": 6802,
      "hiÃ¦": 6803,
      "olon": 6804,
      "olent": 6805,
      "olars": 6806,
      "tec": 6807,
      "teg": 6808,
      "tection": 6809,
      "text": 6810,
      "ricity": 6811,
      "ows": 6812,
      "resp": 6813,
      "resolved": 6814,
      "ership": 6815,
      "ersonal": 6816,
      "loss": 6817,
      "losis": 6818,
      "adv": 6819,
      "adows": 6820,
      "ional": 6821,
      "Ġinclusive": 6822,
      "Ġinclusion": 6823,
      "erel": 6824,
      "ĠEd": 6825,
      "ĠEs": 6826,
      "ĠEmer": 6827,
      "ĠEvidence": 6828,
      "ĠEvolution": 6829,
      "ĠErd": 6830,
      "ĠEthics": 6831,
      "Ġlie": 6832,
      "Ġliqu": 6833,
      "Ġlifest": 6834,
      "Ġitems": 6835,
      "Ġsoy": 6836,
      "Ġsound": 6837,
      "Ġsought": 6838,
      "Ġsouls": 6839,
      "lage": 6840,
      "lapse": 6841,
      "ĠMic": 6842,
      "ĠMil": 6843,
      "ĠMum": 6844,
      "ĠMary": 6845,
      "ĠMass": 6846,
      "ĠMend": 6847,
      "ĠMigration": 6848,
      "ĠMarie": 6849,
      "duous": 6850,
      "Ġushered": 6851,
      "Ġ(\"": 6852,
      "Ġ(\\": 6853,
      "hilosophical": 6854,
      "Ġmeets": 6855,
      "Ġmethane": 6856,
      "Ġmegadi": 6857,
      "Ġmeadows": 6858,
      "Ġcomfor": 6859,
      "entism": 6860,
      "Ġagencies": 6861,
      "Ġconscious": 6862,
      "Ġconserv": 6863,
      "Ġconsumer": 6864,
      "Ġ22": 6865,
      "Ġ2500": 6866,
      "dible": 6867,
      "dified": 6868,
      "dization": 6869,
      "ĠPhi": 6870,
      "ĠProp": 6871,
      "ĠPresent": 6872,
      "ĠPale": 6873,
      "ĠPhenomen": 6874,
      "ĠPost": 6875,
      "ĠPsych": 6876,
      "ĠPier": 6877,
      "ĠPaci": 6878,
      "ĠPrec": 6879,
      "ĠPresident": 6880,
      "ĠPoinc": 6881,
      "ĠInformal": 6882,
      "ichard": 6883,
      "pper": 6884,
      "Ġsemin": 6885,
      "Ġseason": 6886,
      "Ġsections": 6887,
      "Ġseats": 6888,
      "Ġsegments": 6889,
      "Ġsectors": 6890,
      "Ġsequest": 6891,
      "ĠDance": 6892,
      "ĠDue": 6893,
      "ĠDip": 6894,
      "ĠDNA": 6895,
      "ĠDavid": 6896,
      "ĠDomestic": 6897,
      "amy": 6898,
      "amili": 6899,
      "ambiguous": 6900,
      "ammu": 6901,
      "Ġcenter": 6902,
      "Ġcenters": 6903,
      "ĠBrahe": 6904,
      "ĠBrahmaput": 6905,
      "Ġvol": 6906,
      "Ġvoted": 6907,
      "Ġwors": 6908,
      "Ġsubdisciplines": 6909,
      "Ġsubsistence": 6910,
      "Ġsublime": 6911,
      "Ġstor": 6912,
      "Ġstra": 6913,
      "Ġstock": 6914,
      "Ġstopped": 6915,
      "ĠGrass": 6916,
      "ĠGond": 6917,
      "ĠGraph": 6918,
      "ĠGott": 6919,
      "ĠGroup": 6920,
      "ĠGHG": 6921,
      "ĠGÃ¶del": 6922,
      "Ġenh": 6923,
      "Ġending": 6924,
      "Ġended": 6925,
      "Ġensu": 6926,
      "ĠHy": 6927,
      "ĠHell": 6928,
      "ĠHard": 6929,
      "ĠHipp": 6930,
      "ĠHolo": 6931,
      "Ġhand": 6932,
      "soon": 6933,
      "Ġacknowledge": 6934,
      "Ġdiox": 6935,
      "ume": 6936,
      "umed": 6937,
      "uminant": 6938,
      "ogy": 6939,
      "ogens": 6940,
      "ogue": 6941,
      "ogamy": 6942,
      "esty": 6943,
      "Ġfoeticide": 6944,
      "Ġexpos": 6945,
      "Ġexplic": 6946,
      "Ġexperti": 6947,
      "Ġexported": 6948,
      "Ġexposition": 6949,
      "Ġexporter": 6950,
      "anda": 6951,
      "andy": 6952,
      "anding": 6953,
      "ughs": 6954,
      "otal": 6955,
      "Ġrang": 6956,
      "Ġrust": 6957,
      "Ġranges": 6958,
      "Ġritual": 6959,
      "Ġrituals": 6960,
      "Ġruminant": 6961,
      "harkh": 6962,
      "ĠFa": 6963,
      "ĠFe": 6964,
      "ĠFu": 6965,
      "ĠFar": 6966,
      "ĠFund": 6967,
      "ĠFrom": 6968,
      "ĠFarm": 6969,
      "ĠFem": 6970,
      "ĠFran": 6971,
      "ĠFour": 6972,
      "ĠFields": 6973,
      "ĠFound": 6974,
      "Ġarc": 6975,
      "Ġarisen": 6976,
      "ĠNa": 6977,
      "ĠNo": 6978,
      "ĠNile": 6979,
      "ĠNep": 6980,
      "ĠNetwor": 6981,
      "ĠNDA": 6982,
      "mentalism": 6983,
      "Ġpartial": 6984,
      "Ġdispos": 6985,
      "Ġdispla": 6986,
      "Ġdisplay": 6987,
      "Ġintrospe": 6988,
      "Ġintellig": 6989,
      "vided": 6990,
      "Ġkep": 6991,
      "Ġkinds": 6992,
      "Ġkho": 6993,
      "Ġkurta": 6994,
      "ffalo": 6995,
      "strass": 6996,
      "ĠWik": 6997,
      "ĠWHO": 6998,
      "ĠWIPO": 6999,
      "Ġrig": 7000,
      "ĠConcep": 7001,
      "ĠConsequ": 7002,
      "ĠConvention": 7003,
      "ĠContemp": 7004,
      "Ġ195": 7005,
      "Ġ1920": 7006,
      "Ġ1911": 7007,
      "igation": 7008,
      "ignific": 7009,
      "igurations": 7010,
      "osing": 7011,
      "osph": 7012,
      "osinte": 7013,
      "etnam": 7014,
      "Ġteams": 7015,
      "Ġtexti": 7016,
      "Ġteosinte": 7017,
      "Ġunre": 7018,
      "Ġunear": 7019,
      "Ġunitary": 7020,
      "Ġunified": 7021,
      "Ġunemp": 7022,
      "Ġunreasonable": 7023,
      "Ġuntouchability": 7024,
      "Ġunresolved": 7025,
      "Ġunambiguous": 7026,
      "Ġatta": 7027,
      "Ġattain": 7028,
      "Ġatten": 7029,
      "Ġatoms": 7030,
      "Ġfunds": 7031,
      "Ġgenre": 7032,
      "Ġgenes": 7033,
      "Ġgenres": 7034,
      "Ġgenome": 7035,
      "Ġgenders": 7036,
      "Ġgenuine": 7037,
      "Ġmanual": 7038,
      "Ġmanaging": 7039,
      "Ġmanner": 7040,
      "tened": 7041,
      "tensive": 7042,
      "Ġmoth": 7043,
      "Ġmoved": 7044,
      "Ġchap": 7045,
      "ĠItalian": 7046,
      "ĠThen": 7047,
      "ĠThat": 7048,
      "ĠThus": 7049,
      "ĠThree": 7050,
      "ĠThuc": 7051,
      "ĠThail": 7052,
      "ĠRome": 7053,
      "ĠRie": 7054,
      "ĠRice": 7055,
      "ĠRSA": 7056,
      "ĠRichard": 7057,
      "Ġexisted": 7058,
      "Ġstudent": 7059,
      "Ġcompost": 7060,
      "Ġcompares": 7061,
      "Ġfundamentally": 7062,
      "ayat": 7063,
      "Ġotherwise": 7064,
      "roportion": 7065,
      "roplastics": 7066,
      "Ġproduces": 7067,
      "earned": 7068,
      "Ġobstru": 7069,
      "Ġappa": 7070,
      "Ġapplying": 7071,
      "Ġapplies": 7072,
      "Ġleave": 7073,
      "Ġletters": 7074,
      "Ġcanal": 7075,
      "Ġcannot": 7076,
      "Ġabove": 7077,
      "Ġadhe": 7078,
      "Ġadding": 7079,
      "Ġpoetry": 7080,
      "licity": 7081,
      "ĠOctober": 7082,
      "ĠOutside": 7083,
      "Ġsuspending": 7084,
      "Ġyoun": 7085,
      "Ġyouth": 7086,
      "kepticism": 7087,
      "Ġformally": 7088,
      "Ġimpress": 7089,
      "Ġimplies": 7090,
      "Ġliberty": 7091,
      "Ġsustainability": 7092,
      "hab": 7093,
      "hau": 7094,
      "haps": 7095,
      "rup": 7096,
      "ationalists": 7097,
      "ĠYak": 7098,
      "Ġnoted": 7099,
      "ables": 7100,
      "Ġemperor": 7101,
      "aching": 7102,
      "Ġtraining": 7103,
      "Ġtractor": 7104,
      "Ġultimately": 7105,
      "reement": 7106,
      "assisted": 7107,
      "assinated": 7108,
      "gana": 7109,
      "ĠUV": 7110,
      "ĠUPA": 7111,
      "ĠUpper": 7112,
      "Ġgeneration": 7113,
      "Ġgenerations": 7114,
      "Ġgenerates": 7115,
      "Ġquick": 7116,
      "Ġquarter": 7117,
      "Ġquantu": 7118,
      "vilian": 7119,
      "violent": 7120,
      "ĠLa": 7121,
      "ĠLater": 7122,
      "ĠLak": 7123,
      "ĠLiter": 7124,
      "ceptive": 7125,
      "Ġworldview": 7126,
      "tician": 7127,
      "ticize": 7128,
      "roughts": 7129,
      "racuse": 7130,
      "weep": 7131,
      "orting": 7132,
      "ortant": 7133,
      "ĠAnti": 7134,
      "ĠAnimal": 7135,
      "ĠAnglo": 7136,
      "ĠAnalytic": 7137,
      "ĠAnalysis": 7138,
      "ribusiness": 7139,
      "Ġregress": 7140,
      "Ġregular": 7141,
      "Ġregard": 7142,
      "Ġregimes": 7143,
      "Ġregener": 7144,
      "ube": 7145,
      "Ġyearly": 7146,
      "ension": 7147,
      "Ġprecip": 7148,
      "Ġprevention": 7149,
      "Ġprevail": 7150,
      "Ġprehistor": 7151,
      "Ġprecurs": 7152,
      "Ġpremises": 7153,
      "Ġrelief": 7154,
      "Ġgeography": 7155,
      "Ġgeocentric": 7156,
      "ritus": 7157,
      "ĠChen": 7158,
      "ĠChess": 7159,
      "ĠChand": 7160,
      "ĠChhau": 7161,
      "Ġperiodizations": 7162,
      "Ġbase": 7163,
      "Ġoverran": 7164,
      "Ġoverview": 7165,
      "Ġovercome": 7166,
      "Ġcommitte": 7167,
      "angements": 7168,
      "Ġfarmland": 7169,
      "Ġmodernity": 7170,
      "ĠAss": 7171,
      "ĠAsians": 7172,
      "Ġsocialism": 7173,
      "akhi": 7174,
      "akers": 7175,
      "Ġpercep": 7176,
      "Ġpervas": 7177,
      "Ġperfect": 7178,
      "Ġdoctor": 7179,
      "Ġdiffusion": 7180,
      "Ġdiffused": 7181,
      "deductive": 7182,
      "Ġraw": 7183,
      "Ġraid": 7184,
      "Ġravens": 7185,
      "Ġreprodu": 7186,
      "Ġreports": 7187,
      "Ġrepresents": 7188,
      "Ġcounts": 7189,
      "Ġcountable": 7190,
      "Ġje": 7191,
      "Ġjac": 7192,
      "Ġjurisdiction": 7193,
      "Ġdeclar": 7194,
      "Ġdecolon": 7195,
      "efin": 7196,
      "Ġrose": 7197,
      "Ġroot": 7198,
      "vene": 7199,
      "Ġplaces": 7200,
      "ginning": 7201,
      "Ġtimel": 7202,
      "Ġnotion": 7203,
      "Ġnotably": 7204,
      "Ġprior": 7205,
      "Ġpriori": 7206,
      "Ġprivate": 7207,
      "Ġtranslated": 7208,
      "Ġtranslations": 7209,
      "Ġtranscend": 7210,
      "Ġdiscour": 7211,
      "ĠAgency": 7212,
      "Ġexperiment": 7213,
      "Ġgeometrical": 7214,
      "Ġnever": 7215,
      "Ġneither": 7216,
      "endments": 7217,
      "Ġscheduled": 7218,
      "Ġdomain": 7219,
      "anguages": 7220,
      "Ġdifferenti": 7221,
      "Ġdifferences": 7222,
      "Ġ53": 7223,
      "ĠJes": 7224,
      "ĠJaw": 7225,
      "ĠJames": 7226,
      "ĠJune": 7227,
      "ĠJammu": 7228,
      "ĠJharkh": 7229,
      "culty": 7230,
      "ĠVis": 7231,
      "ĠVar": 7232,
      "ĠVirtu": 7233,
      "Ġpoliticisation": 7234,
      "Ġ31": 7235,
      "Ġ32": 7236,
      "Ġ35": 7237,
      "Ġ3500": 7238,
      "Ġ361": 7239,
      "Ġbio": 7240,
      "ĠMax": 7241,
      "ĠMahavi": 7242,
      "ĠMahat": 7243,
      "ission": 7244,
      "Ġshalw": 7245,
      "Ġphysicists": 7246,
      "Ġgrows": 7247,
      "Ġpoll": 7248,
      "awatts": 7249,
      "voc": 7250,
      "voury": 7251,
      "Ġpeas": 7252,
      "Ġpeace": 7253,
      "Ġspite": 7254,
      "Ġspons": 7255,
      "Ġsports": 7256,
      "Ġindirect": 7257,
      "Ġtwice": 7258,
      "Ġdesire": 7259,
      "ĠEuropeans": 7260,
      "tillage": 7261,
      "Ġthereby": 7262,
      "Ġthereafter": 7263,
      "Ġemerge": 7264,
      "Ġheli": 7265,
      "Ġrefined": 7266,
      "Ġrefute": 7267,
      "Ġreference": 7268,
      "rence": 7269,
      "Ġstatic": 7270,
      "Ġpersist": 7271,
      "Ġmarine": 7272,
      "Ġmarry": 7273,
      "Ġmarried": 7274,
      "Ġmarshy": 7275,
      "Ġvariations": 7276,
      "oking": 7277,
      "ĠKh": 7278,
      "ĠKal": 7279,
      "ĠKeral": 7280,
      "ĠKosi": 7281,
      "ĠAlliance": 7282,
      "ĠAlfred": 7283,
      "Ġideally": 7284,
      "Ġideology": 7285,
      "Ġideals": 7286,
      "Ġideologies": 7287,
      "Ġidealism": 7288,
      "Ġidealized": 7289,
      "Ġeconomicus": 7290,
      "Ġ2014": 7291,
      "ifth": 7292,
      "ifying": 7293,
      "ifiable": 7294,
      "Ġoutcome": 7295,
      "Ġnonprof": 7296,
      "Ġnonviolent": 7297,
      "Ġsupple": 7298,
      "Ġsuppress": 7299,
      "Ġsupposed": 7300,
      "Ġsupplies": 7301,
      "Ġsupplanted": 7302,
      "Ġ72": 7303,
      "Ġ78": 7304,
      "Ġ79": 7305,
      "Ġ700": 7306,
      "Ġammon": 7307,
      "Ġambiguous": 7308,
      "Ġambitions": 7309,
      "Ġamendments": 7310,
      "Ġeleg": 7311,
      "Ġelement": 7312,
      "Ġelementary": 7313,
      "Ġ2020": 7314,
      "ĠUntil": 7315,
      "minatory": 7316,
      "Ġinvent": 7317,
      "Ġcolor": 7318,
      "Ġcollapse": 7319,
      "ĠEnergy": 7320,
      "ĠEncyclop": 7321,
      "Ġscrut": 7322,
      "Ġclassifying": 7323,
      "Ġanalyses": 7324,
      "official": 7325,
      "Ġ42": 7326,
      "Ġ43": 7327,
      "Ġ63": 7328,
      "Ġ65": 7329,
      "Ġmedals": 7330,
      "Ġlove": 7331,
      "Ġlose": 7332,
      "Ġequal": 7333,
      "Ġrecover": 7334,
      "Ġrecomm": 7335,
      "Ġrecreational": 7336,
      "Ġgroupings": 7337,
      "Ġinspired": 7338,
      "Ġendow": 7339,
      "Ġmillions": 7340,
      "Ġupstream": 7341,
      "Ġindustries": 7342,
      "Ġweak": 7343,
      "Ġpeoples": 7344,
      "Ġobservational": 7345,
      "Ġparticulars": 7346,
      "puts": 7347,
      "Ġcrime": 7348,
      "Ġcriticize": 7349,
      "Ġfail": 7350,
      "Ġfacing": 7351,
      "Ġreasons": 7352,
      "Ġassociate": 7353,
      "Ġassociations": 7354,
      "Ġorganization": 7355,
      "Ġorganisation": 7356,
      "ĠSto": 7357,
      "Ġvalley": 7358,
      "gramme": 7359,
      "ĠIshang": 7360,
      "Ġassimil": 7361,
      "Ġassassinated": 7362,
      "Ġ2005": 7363,
      "Ġinterpreting": 7364,
      "although": 7365,
      "Ġmaturation": 7366,
      "Ġlifetime": 7367,
      "Ġviewed": 7368,
      "Ġlogically": 7369,
      "Ġposits": 7370,
      "Ġpositive": 7371,
      "Ġtreated": 7372,
      "ĠMathematica": 7373,
      "Ġargues": 7374,
      "neur": 7375,
      "value": 7376,
      "Ġoccasions": 7377,
      "isional": 7378,
      "Ġcomplemented": 7379,
      "culosis": 7380,
      "ronic": 7381,
      "Ġpresence": 7382,
      "Ġpreservation": 7383,
      "Ġpresident": 7384,
      "Ġminerals": 7385,
      "arsha": 7386,
      "ĠArt": 7387,
      "ills": 7388,
      "illar": 7389,
      "Ġempiricist": 7390,
      "Ġbroadest": 7391,
      "Ġbroadened": 7392,
      "arer": 7393,
      "Ġ90": 7394,
      "Ġ9000": 7395,
      "Ġeducational": 7396,
      "Ġcorrelation": 7397,
      "Ġcorresp": 7398,
      "Ġpredators": 7399,
      "Ġbread": 7400,
      "Ġbreak": 7401,
      "Ġbreath": 7402,
      "Ġbreeders": 7403,
      "Ġrequired": 7404,
      "Ġplanes": 7405,
      "ĊĠĠĠĠĠĠĠĠĊĠĠĠĠĠĠĊĠĠĠĠĊĠĠĠ": 7406,
      "Ġautomated": 7407,
      "called": 7408,
      "calories": 7409,
      "Ġlabour": 7410,
      "ĠEmpiricism": 7411,
      "ĠRecor": 7412,
      "Ġprimitive": 7413,
      "ported": 7414,
      "vati": 7415,
      "Ġcivilian": 7416,
      "ĠPlastic": 7417,
      "ĠPlants": 7418,
      "ĠWork": 7419,
      "ĠUSD": 7420,
      "Ġwhereby": 7421,
      "ographs": 7422,
      "Ġlosing": 7423,
      "Ġserves": 7424,
      "Ġpublications": 7425,
      "Ġinquiries": 7426,
      "Ġherds": 7427,
      "Ġreduction": 7428,
      "Ġreduces": 7429,
      "Ġinvestigated": 7430,
      "bicide": 7431,
      "mbian": 7432,
      "Ġencroach": 7433,
      "Ġcontinental": 7434,
      "Ġemphasizing": 7435,
      "Ġemphasises": 7436,
      "Ġrepresentations": 7437,
      "days": 7438,
      "forestry": 7439,
      "gency": 7440,
      "Ġconfined": 7441,
      "Ġconferences": 7442,
      "Ġconfigurations": 7443,
      "Ġrisen": 7444,
      "Ġteacher": 7445,
      "Ġstands": 7446,
      "Ġcontributes": 7447,
      "Ġcontributors": 7448,
      "position": 7449,
      "Ġ85": 7450,
      "Ġ8000": 7451,
      "Ġsake": 7452,
      "Ġsavoury": 7453,
      "Ġhappiness": 7454,
      "Ġ1990": 7455,
      "Ġ1994": 7456,
      "Ġ1996": 7457,
      "Ġ1997": 7458,
      "Ġ1999": 7459,
      "Ġdominion": 7460,
      "Ġdominated": 7461,
      "Ġaway": 7462,
      "Ġaward": 7463,
      "antially": 7464,
      "Ġprinces": 7465,
      "chants": 7466,
      "Ġidentified": 7467,
      "Ġcultivate": 7468,
      "Ġpopularity": 7469,
      "Ġpopularized": 7470,
      "Ġpopularization": 7471,
      "Ġtransforming": 7472,
      "Ġpowerful": 7473,
      "disha": 7474,
      "Ġfungi": 7475,
      "rowning": 7476,
      "Ġreallocation": 7477,
      "Ġ105": 7478,
      "ĠMetaphysics": 7479,
      "ĠMexic": 7480,
      "ĠMehr": 7481,
      "Ġruled": 7482,
      "Ġrulers": 7483,
      "Ġ1967": 7484,
      "Ġabstractions": 7485,
      "Ġformulate": 7486,
      "Ġcapable": 7487,
      "Ġcommunism": 7488,
      "Ġdescribed": 7489,
      "Ġarid": 7490,
      "Ġinnate": 7491,
      "Ġfamine": 7492,
      "Ġrelativism": 7493,
      "Ġextinct": 7494,
      "ĠPhilosophiÃ¦": 7495,
      "Ġdivisions": 7496,
      "Ġdivorce": 7497,
      "Ġarchaic": 7498,
      "Ġuniversally": 7499,
      "Ġadopting": 7500,
      "Ġestimating": 7501,
      "Ġcolleges": 7502,
      "ynamics": 7503,
      "ertainty": 7504,
      "isticated": 7505,
      "Ġpatri": 7506,
      "Ġpatron": 7507,
      "Ġdrives": 7508,
      "Ġnationalist": 7509,
      "Ġlessons": 7510,
      "Ġcourses": 7511,
      "ĠProgress": 7512,
      "ĠProtection": 7513,
      "ĠProgramme": 7514,
      "ĠHeav": 7515,
      "Ġcomputers": 7516,
      "Ġscholasticism": 7517,
      "Ġdistinctions": 7518,
      "Ġhelped": 7519,
      "Ġliterate": 7520,
      "Ġliterary": 7521,
      "Ġentrepre": 7522,
      "Ġentomology": 7523,
      "Ġsteamed": 7524,
      "Ġcheeta": 7525,
      "Ġoffers": 7526,
      "Ġphenomenon": 7527,
      "Ġeverything": 7528,
      "Ġvarna": 7529,
      "Ġarticles": 7530,
      "Ġarticulating": 7531,
      "Ġevaluated": 7532,
      "Ġevaluates": 7533,
      "Ġevaluating": 7534,
      "Ġevaluative": 7535,
      "Ġjustice": 7536,
      "Ġpredict": 7537,
      "Ġprediction": 7538,
      "Ġincorporating": 7539,
      "2023": 7540,
      "historical": 7541,
      "work": 7542,
      "Ġriches": 7543,
      "Ġspeakers": 7544,
      "Ġcarved": 7545,
      "Ġinstances": 7546,
      "Ġguinea": 7547,
      "ĠSecurity": 7548,
      "Ġselecting": 7549,
      "Ġdivides": 7550,
      "Ġobjectively": 7551,
      "Ġresistant": 7552,
      "dratiev": 7553,
      "sidized": 7554,
      "Äģy": 7555,
      "Ġavailability": 7556,
      "Ġolder": 7557,
      "Ġfinds": 7558,
      "Ġfinding": 7559,
      "Ġgives": 7560,
      "Ġconsequentialism": 7561,
      "ĠComputational": 7562,
      "Ġmeasuring": 7563,
      "Ġ1940": 7564,
      "ĠRenÃ©": 7565,
      "Ġlegacy": 7566,
      "Ġanalyzing": 7567,
      "Ġshows": 7568,
      "Ġquestioning": 7569,
      "Indo": 7570,
      "atise": 7571,
      "Ġsimilarly": 7572,
      "Ġwarning": 7573,
      "Ġwarriors": 7574,
      "ĠExperi": 7575,
      "ĠMarath": 7576,
      "Ġcommerce": 7577,
      "ĠDeter": 7578,
      "Ġacceptable": 7579,
      "ĠNeoplaton": 7580,
      "Ġimpacts": 7581,
      "ĠLeg": 7582,
      "ĠLevant": 7583,
      "ĠLeonhar": 7584,
      "Ġreflect": 7585,
      "Ġprinciple": 7586,
      "Ġprincipally": 7587,
      "Ġstronger": 7588,
      "books": 7589,
      "mitt": 7590,
      "Ġpotentially": 7591,
      "Ġpottery": 7592,
      "Ġexchanged": 7593,
      "ĠMesoam": 7594,
      "Ġacquaint": 7595,
      "Ġacquisition": 7596,
      "Ġ1981": 7597,
      "Ġ1984": 7598,
      "Ġ1985": 7599,
      "Ġpolyeth": 7600,
      "Ġjournalism": 7601,
      "Ġneeded": 7602,
      "ĠAristarchus": 7603,
      "Ġconducting": 7604,
      "Ġchemicals": 7605,
      "fucianism": 7606,
      "mara": 7607,
      "Ġessence": 7608,
      "Ġmonitoring": 7609,
      "Ġbushel": 7610,
      "Ġreleased": 7611,
      "Ġreleasing": 7612,
      "ligion": 7613,
      "ĠBeginning": 7614,
      "Ġexpanding": 7615,
      "osystem": 7616,
      "Ġnumerals": 7617,
      "ĠChristians": 7618,
      "Ġdecreased": 7619,
      "Ġindustrialized": 7620,
      "Ġmaterialism": 7621,
      "Ġoccupations": 7622,
      "Ġoccupies": 7623,
      "Ġoccupational": 7624,
      "Ġcharacterised": 7625,
      "Ġcharacteristic": 7626,
      "Ġfunctional": 7627,
      "Ġprofessionalisation": 7628,
      "Ġcommercialisation": 7629,
      "Ġcategorized": 7630,
      "proven": 7631,
      "proof": 7632,
      "Ġauthors": 7633,
      "Ġpaper": 7634,
      "Ġinsect": 7635,
      "Ġinsecurity": 7636,
      "Ġinsecticides": 7637,
      "Ġfinite": 7638,
      "Ġfinance": 7639,
      "Ġdynamics": 7640,
      "Ġdynasties": 7641,
      "Ġhunting": 7642,
      "ĠAndes": 7643,
      "Ġsucceed": 7644,
      "ĠGeometry": 7645,
      "Ġtemples": 7646,
      "ĠOntology": 7647,
      "Ġevolutionary": 7648,
      "Ġterritorial": 7649,
      "Ġreplace": 7650,
      "Ġrecords": 7651,
      "Ġexplanatory": 7652,
      "1603": 7653,
      "aharlal": 7654,
      "borne": 7655,
      "Ġtied": 7656,
      "Ġtight": 7657,
      "Ġverify": 7658,
      "Ġverbal": 7659,
      "Ġverifiability": 7660,
      "Ġinstrumentalism": 7661,
      "Ġfuel": 7662,
      "Ġbuild": 7663,
      "Ġbuffalo": 7664,
      "Ġelite": 7665,
      "Ġdeny": 7666,
      "Ġhymn": 7667,
      "Ġexcluded": 7668,
      "Ġlink": 7669,
      "ĠMuslims": 7670,
      "Ġconstituted": 7671,
      "ĠPunjabi": 7672,
      "ĠDisasters": 7673,
      "Ġsubfield": 7674,
      "Ġartists": 7675,
      "Ġartificially": 7676,
      "Ġ1971": 7677,
      "Ġ1975": 7678,
      "imedes": 7679,
      "ĠRamanuj": 7680,
      "Ġspecialised": 7681,
      "Ġmaintains": 7682,
      "Ġmaintained": 7683,
      "Ġmaintaining": 7684,
      "Ġassessing": 7685,
      "Ġassessment": 7686,
      "Ġcorrectness": 7687,
      "Ġmultiplication": 7688,
      "Ġveget": 7689,
      "brid": 7690,
      "pses": 7691,
      "á¹£": 7692,
      "Ġaffirm": 7693,
      "Ġaffair": 7694,
      "Ġpsychological": 7695,
      "Ġpublishing": 7696,
      "Ġinjury": 7697,
      "Ġfreedom": 7698,
      "Ġdairy": 7699,
      "Ġdedicated": 7700,
      "ĠAcademic": 7701,
      "Ġconstructed": 7702,
      "ĠCarr": 7703,
      "ĠCarnatic": 7704,
      "Ġdecide": 7705,
      "Ġdeciduous": 7706,
      "illage": 7707,
      "ĠEconomists": 7708,
      "ĠEurasian": 7709,
      "ĠMedal": 7710,
      "ĠMedieval": 7711,
      "ĠGalilei": 7712,
      "Ġensla": 7713,
      "Ġattra": 7714,
      "Ġnegoti": 7715,
      "Ġfactorization": 7716,
      "Ġstandardised": 7717,
      "Ġfamiliar": 7718,
      "Ġmeasurement": 7719,
      "Ġsuccessor": 7720,
      "Ġsuccession": 7721,
      "Ġavoided": 7722,
      "Ġavoidance": 7723,
      "ĠPythagoras": 7724,
      "cape": 7725,
      "criptions": 7726,
      "olumbian": 7727,
      "pots": 7728,
      "Ġsixty": 7729,
      "Ġsixteenth": 7730,
      "Ġclergy": 7731,
      "Ġpasture": 7732,
      "Ġwaves": 7733,
      "Ġmisleading": 7734,
      "Ġmisunderst": 7735,
      "Ġharmful": 7736,
      "Ġrenewable": 7737,
      "stretched": 7738,
      "ĠAdam": 7739,
      "ĠAdvaita": 7740,
      "Ġconcentration": 7741,
      "Ġconcentrations": 7742,
      "Ġexemplified": 7743,
      "Ġlinguistic": 7744,
      "Ġcoastline": 7745,
      "Ġprominence": 7746,
      "Ġpromotion": 7747,
      "Ġdevoted": 7748,
      "Ġlivelihood": 7749,
      "ĠDemocratic": 7750,
      "Ġsubsequently": 7751,
      "Ġendemism": 7752,
      "Ġdifficulties": 7753,
      "Ġarmy": 7754,
      "Ġarmed": 7755,
      "Ġcommodity": 7756,
      "Ġjudgments": 7757,
      "Ġlandscap": 7758,
      "Ġlandscape": 7759,
      "Ġspacetime": 7760,
      "Ġhighlights": 7761,
      "Ġobserving": 7762,
      "Ġdistributions": 7763,
      "Ġdistributed": 7764,
      "ĠArchimedes": 7765,
      "Ġdescriptions": 7766,
      "Ġsurfaces": 7767,
      "Ġpursue": 7768,
      "Ġpursued": 7769,
      "Ġpursuit": 7770,
      "Ġidentifying": 7771,
      "Ġextremes": 7772,
      "Ġguided": 7773,
      "Ġharvested": 7774,
      "Ġharvesting": 7775,
      "Ġwithdrawal": 7776,
      "Ġopposed": 7777,
      "ictionary": 7778,
      "Ġtrigg": 7779,
      "Ġthreatened": 7780,
      "Ġgaps": 7781,
      "Ġsuperi": 7782,
      "Ġsummary": 7783,
      "Ġpromising": 7784,
      "Ġpromoted": 7785,
      "ĠCiviliz": 7786,
      "Ġdetails": 7787,
      "Ġdetailed": 7788,
      "Ġanswers": 7789,
      "Ġagroecological": 7790,
      "Ġagroforestry": 7791,
      "Ġvirtue": 7792,
      "Ġvirtuous": 7793,
      "ĠGregor": 7794,
      "ĠGreco": 7795,
      "ĠGMOs": 7796,
      "ĠHerbicide": 7797,
      "Ġrunoff": 7798,
      "ĠNaturalis": 7799,
      "ĠWilliam": 7800,
      "Ġsymmet": 7801,
      "ĠRussian": 7802,
      "Ġcomparable": 7803,
      "Ġcomparison": 7804,
      "ĠOverview": 7805,
      "ĠUniverse": 7806,
      "Ġcounterfactual": 7807,
      "Ġdeclining": 7808,
      "Ġheading": 7809,
      "Ġmarginalized": 7810,
      "ĠAlgebraic": 7811,
      "Ġsurvive": 7812,
      "Ġcommunication": 7813,
      "Ġcommunicate": 7814,
      "Ġcommunications": 7815,
      "Ġarchaeological": 7816,
      "Ġresponsib": 7817,
      "ĠSikhs": 7818,
      "ĠSikhism": 7819,
      "ĠStatistics": 7820,
      "Ġnegatively": 7821,
      "Ġframeworks": 7822,
      "ĠĊĠĠĊĠĠĠĠĊĠĠĠĠĠĠĊĠĠĠĠĠĠĠĠĊĠĠĠĠĠĠĠĠĠ": 7823,
      "Ġpaintings": 7824,
      "ierstrass": 7825,
      "¸Î½Î": 7826,
      "ĠQuran": 7827,
      "ĠZoro": 7828,
      "Ġzone": 7829,
      "Ġzero": 7830,
      "tization": 7831,
      "Ġsensitive": 7832,
      "oriented": 7833,
      "Ġplot": 7834,
      "Ġpathogens": 7835,
      "Ġfastest": 7836,
      "Ġflowering": 7837,
      "Ġwrite": 7838,
      "Ġembod": 7839,
      "Ġembedded": 7840,
      "Ġdestro": 7841,
      "ĠTogether": 7842,
      "ĠBacon": 7843,
      "Ġprovable": 7844,
      "Ġprovisional": 7845,
      "Ġdependent": 7846,
      "Ġdeaths": 7847,
      "ĠIndustrialized": 7848,
      "ficiency": 7849,
      "ĠPrinting": 7850,
      "Ġsecularization": 7851,
      "Ġvolume": 7852,
      "Ġvolumes": 7853,
      "Ġvolunt": 7854,
      "ĠGoldbach": 7855,
      "Ġencyclopedia": 7856,
      "ĠHindus": 7857,
      "Ġuncover": 7858,
      "Ġuncommon": 7859,
      "Ġuncertainty": 7860,
      "Ġmotivation": 7861,
      "Ġchronological": 7862,
      "Ġobjectives": 7863,
      "Ġadapted": 7864,
      "Ġadaptation": 7865,
      "Ġadaptations": 7866,
      "Ġresidue": 7867,
      "Ġdefeat": 7868,
      "Ġdoubts": 7869,
      "Ġdoubled": 7870,
      "Ġratio": 7871,
      "ĠSocratic": 7872,
      "ĠVais": 7873,
      "ĠVajpay": 7874,
      "ĠViÃ¨": 7875,
      "ĠVijay": 7876,
      "ĠVietnam": 7877,
      "Ġshortened": 7878,
      "ĠEnvironment": 7879,
      "Ġentirely": 7880,
      "Ġentirety": 7881,
      "Ġoptimal": 7882,
      "ĠArabia": 7883,
      "Ġpossessed": 7884,
      "Ġpossibly": 7885,
      "Ġpossibility": 7886,
      "Ġpossibilities": 7887,
      "Ġpolynomials": 7888,
      "Ġtemperate": 7889,
      "Ġtemperature": 7890,
      "Ġtemperatures": 7891,
      "Ġhybridization": 7892,
      "Ġextremely": 7893,
      "colonialism": 7894,
      "Ġreturn": 7895,
      "Ġpseudohistory": 7896,
      "Ġblackbuck": 7897,
      "Mathematical": 7898,
      "critical": 7899,
      "emphas": 7900,
      "presently": 7901,
      "wana": 7902,
      "Ġauthentic": 7903,
      "interest": 7904,
      "Ġsalinization": 7905,
      "Ġstabiliz": 7906,
      "Ġphras": 7907,
      "Ġpleas": 7908,
      "Ġinequalities": 7909,
      "Ġtune": 7910,
      "Ġbenefits": 7911,
      "Ġdistortion": 7912,
      "rigorous": 7913,
      "Ġgarment": 7914,
      "Ġgarlic": 7915,
      "Ġgaining": 7916,
      "Ġlaid": 7917,
      "Ġlatitudes": 7918,
      "Ġsunclock": 7919,
      "Ġsuffering": 7920,
      "ĠBihar": 7921,
      "ĠBiodiversity": 7922,
      "ĠShastri": 7923,
      "ĠSchool": 7924,
      "ĠScholars": 7925,
      "ĠManure": 7926,
      "ĠModi": 7927,
      "Ġmetatheory": 7928,
      "ĠHomer": 7929,
      "Ġdirection": 7930,
      "Ġdirectives": 7931,
      "Ġartisans": 7932,
      "Ġdisproportion": 7933,
      "ĠWeierstrass": 7934,
      "Ġteleological": 7935,
      "Ġunfamili": 7936,
      "Ġmanufacture": 7937,
      "Ġmanufacturing": 7938,
      "Ġmoisture": 7939,
      "ĠRoyal": 7940,
      "ĠReport": 7941,
      "ĠRepublic": 7942,
      "Ġcomponent": 7943,
      "Ġobligation": 7944,
      "Ġobligations": 7945,
      "Ġimpossible": 7946,
      "Ġliberalisation": 7947,
      "Ġsystematizing": 7948,
      "Ġqualities": 7949,
      "Ġqualitative": 7950,
      "Ġregulations": 7951,
      "Ġaccomplish": 7952,
      "Ġshores": 7953,
      "Ġshoulder": 7954,
      "Ġoutlooks": 7955,
      "Ġcolonized": 7956,
      "Ġcolonization": 7957,
      "Ġscript": 7958,
      "ĠTechnology": 7959,
      "ĠTechnological": 7960,
      "ĠMethods": 7961,
      "Ġspeculation": 7962,
      "Ġlegislature": 7963,
      "Ġfloods": 7964,
      "Ġflooding": 7965,
      "Ġsuggests": 7966,
      "Ġsuggestions": 7967,
      "Ġauthorities": 7968,
      "ĠRajiv": 7969,
      "ĠRajputs": 7970,
      "Ġjudgements": 7971,
      "Ġrecognised": 7972,
      "Ġrecognizing": 7973,
      "Ġtrigonometry": 7974,
      "Ġreconstruct": 7975,
      "Ġreconstruction": 7976,
      "Ġpredominantly": 7977,
      "Ġfossils": 7978,
      "1540": 7979,
      "618": 7980,
      "hangra": 7981,
      "linked": 7982,
      "ointed": 7983,
      "producing": 7984,
      "shagana": 7985,
      "yalty": 7986,
      "á¼¸Î½Î": 7987,
      "ĠâĤ¹": 7988,
      "intens": 7989,
      "Ġoilseeds": 7990,
      "Ġsimultaneously": 7991,
      "Ġscepticism": 7992,
      "Ġcredit": 7993,
      "Ġprag": 7994,
      "Ġfaster": 7995,
      "Ġfashi": 7996,
      "Ġfalsifiable": 7997,
      "Ġwetlands": 7998,
      "Ġmyths": 7999
    },
    "merges": [
      [
        "t",
        "h"
      ],
      [
        "Ġ",
        "a"
      ],
      [
        "i",
        "n"
      ],
      [
        "à",
        "¤"
      ],
      [
        "t",
        "i"
      ],
      [
        "o",
        "n"
      ],
      [
        "th",
        "e"
      ],
      [
        "r",
        "e"
      ],
      [
        "Ġ",
        "the"
      ],
      [
        "e",
        "n"
      ],
      [
        "Ġ",
        "o"
      ],
      [
        "à",
        "¦"
      ],
      [
        "a",
        "l"
      ],
      [
        "e",
        "r"
      ],
      [
        "i",
        "s"
      ],
      [
        "Ġ",
        "s"
      ],
      [
        "n",
        "d"
      ],
      [
        "e",
        "s"
      ],
      [
        "Ġ",
        "c"
      ],
      [
        "Ġo",
        "f"
      ],
      [
        "a",
        "n"
      ],
      [
        "o",
        "r"
      ],
      [
        "i",
        "c"
      ],
      [
        "Ġ",
        "p"
      ],
      [
        "e",
        "d"
      ],
      [
        "Ġ",
        "in"
      ],
      [
        "ti",
        "on"
      ],
      [
        "Ġ",
        "f"
      ],
      [
        "Ġ",
        "à¤"
      ],
      [
        "Ġa",
        "nd"
      ],
      [
        "Ġ",
        "w"
      ],
      [
        "a",
        "t"
      ],
      [
        "Ġ",
        "m"
      ],
      [
        "Ġ",
        "t"
      ],
      [
        "a",
        "r"
      ],
      [
        "à",
        "¥"
      ],
      [
        "in",
        "g"
      ],
      [
        "Ġ",
        "b"
      ],
      [
        "r",
        "o"
      ],
      [
        "Ġ",
        "e"
      ],
      [
        "a",
        "s"
      ],
      [
        "u",
        "s"
      ],
      [
        "en",
        "t"
      ],
      [
        "Ġ",
        "d"
      ],
      [
        "Ġ",
        "h"
      ],
      [
        "a",
        "tion"
      ],
      [
        "i",
        "t"
      ],
      [
        "Ġ",
        "is"
      ],
      [
        "c",
        "i"
      ],
      [
        "Ġt",
        "o"
      ],
      [
        "l",
        "o"
      ],
      [
        "Ġ",
        "re"
      ],
      [
        "o",
        "m"
      ],
      [
        "l",
        "e"
      ],
      [
        "u",
        "r"
      ],
      [
        "ti",
        "c"
      ],
      [
        "u",
        "l"
      ],
      [
        "c",
        "e"
      ],
      [
        "is",
        "t"
      ],
      [
        "r",
        "a"
      ],
      [
        "l",
        "i"
      ],
      [
        "l",
        "y"
      ],
      [
        "Ġ",
        "I"
      ],
      [
        "Ġ",
        "à¦"
      ],
      [
        "s",
        "t"
      ],
      [
        "c",
        "h"
      ],
      [
        "v",
        "e"
      ],
      [
        "=",
        "="
      ],
      [
        "Ġ",
        "n"
      ],
      [
        "Ġ",
        "th"
      ],
      [
        "Ġ",
        "A"
      ],
      [
        "r",
        "i"
      ],
      [
        "Ġ",
        "g"
      ],
      [
        "Ġc",
        "on"
      ],
      [
        "c",
        "t"
      ],
      [
        "i",
        "d"
      ],
      [
        "m",
        "ent"
      ],
      [
        "à",
        "§"
      ],
      [
        "à¦",
        "¾"
      ],
      [
        "à¥",
        "Ģ"
      ],
      [
        "Ġa",
        "s"
      ],
      [
        "Ġf",
        "or"
      ],
      [
        "m",
        "a"
      ],
      [
        "Ġ",
        "T"
      ],
      [
        "Ġb",
        "e"
      ],
      [
        "Ġm",
        "a"
      ],
      [
        "h",
        "e"
      ],
      [
        "Ġe",
        "x"
      ],
      [
        "o",
        "d"
      ],
      [
        "Ġ",
        "l"
      ],
      [
        "es",
        "s"
      ],
      [
        "à¤",
        "¾"
      ],
      [
        "Ġà¤",
        "ķ"
      ],
      [
        "at",
        "e"
      ],
      [
        "t",
        "er"
      ],
      [
        "Ġs",
        "u"
      ],
      [
        "o",
        "us"
      ],
      [
        "Ġ",
        "B"
      ],
      [
        "t",
        "u"
      ],
      [
        "o",
        "p"
      ],
      [
        "e",
        "l"
      ],
      [
        "i",
        "th"
      ],
      [
        "Ġc",
        "o"
      ],
      [
        "v",
        "er"
      ],
      [
        "Ġp",
        "ro"
      ],
      [
        "m",
        "an"
      ],
      [
        "Ġ",
        "C"
      ],
      [
        "ic",
        "al"
      ],
      [
        "g",
        "e"
      ],
      [
        "Ġa",
        "l"
      ],
      [
        "m",
        "p"
      ],
      [
        "Ġd",
        "e"
      ],
      [
        "ist",
        "or"
      ],
      [
        "Ġw",
        "ith"
      ],
      [
        "Ġo",
        "r"
      ],
      [
        "en",
        "ce"
      ],
      [
        "Ġb",
        "y"
      ],
      [
        "u",
        "t"
      ],
      [
        "Ġw",
        "h"
      ],
      [
        "g",
        "h"
      ],
      [
        "Ġ",
        "on"
      ],
      [
        "i",
        "r"
      ],
      [
        "l",
        "u"
      ],
      [
        "à¤",
        "¤"
      ],
      [
        "à¥",
        "ĩ"
      ],
      [
        "à¥",
        "Ī"
      ],
      [
        "t",
        "a"
      ],
      [
        "Ġ",
        "Ġ"
      ],
      [
        "Ġ",
        "S"
      ],
      [
        "Ġa",
        "n"
      ],
      [
        "it",
        "y"
      ],
      [
        "u",
        "nd"
      ],
      [
        "s",
        "e"
      ],
      [
        "i",
        "l"
      ],
      [
        "ĠI",
        "nd"
      ],
      [
        "Ġa",
        "re"
      ],
      [
        "i",
        "a"
      ],
      [
        "Ġ",
        "=="
      ],
      [
        "Ġ",
        "1"
      ],
      [
        "ĠT",
        "he"
      ],
      [
        "u",
        "n"
      ],
      [
        "Ġh",
        "istor"
      ],
      [
        "h",
        "i"
      ],
      [
        "Ġth",
        "at"
      ],
      [
        "o",
        "l"
      ],
      [
        "ation",
        "s"
      ],
      [
        "the",
        "r"
      ],
      [
        "t",
        "e"
      ],
      [
        "r",
        "ic"
      ],
      [
        "the",
        "ma"
      ],
      [
        "Ġs",
        "ci"
      ],
      [
        "t",
        "s"
      ],
      [
        "tic",
        "al"
      ],
      [
        "o",
        "w"
      ],
      [
        "re",
        "s"
      ],
      [
        "c",
        "tion"
      ],
      [
        "q",
        "u"
      ],
      [
        "Ĩ",
        "à¦"
      ],
      [
        "à¤",
        "°"
      ],
      [
        "à¤",
        "¿"
      ],
      [
        "Ġà¤",
        "¹"
      ],
      [
        "à¥",
        "į"
      ],
      [
        "Ġà¦",
        "Ĩà¦"
      ],
      [
        "er",
        "s"
      ],
      [
        "lo",
        "s"
      ],
      [
        "a",
        "d"
      ],
      [
        "p",
        "e"
      ],
      [
        "i",
        "on"
      ],
      [
        "Ġma",
        "thema"
      ],
      [
        "Ġin",
        "c"
      ],
      [
        "e",
        "re"
      ],
      [
        "Ġ",
        "E"
      ],
      [
        "Ġ",
        "li"
      ],
      [
        "h",
        "y"
      ],
      [
        "f",
        "ic"
      ],
      [
        "Ġ",
        "it"
      ],
      [
        "Ġs",
        "o"
      ],
      [
        "l",
        "a"
      ],
      [
        "Ġ",
        "M"
      ],
      [
        "d",
        "u"
      ],
      [
        "Ġ",
        "us"
      ],
      [
        "Ġ",
        "("
      ],
      [
        "om",
        "e"
      ],
      [
        "hi",
        "los"
      ],
      [
        "hilos",
        "op"
      ],
      [
        "Ġm",
        "e"
      ],
      [
        "lo",
        "g"
      ],
      [
        "ro",
        "m"
      ],
      [
        "Ġc",
        "om"
      ],
      [
        "en",
        "ti"
      ],
      [
        "m",
        "ic"
      ],
      [
        "Ġa",
        "g"
      ],
      [
        "tic",
        "s"
      ],
      [
        "Ġcon",
        "s"
      ],
      [
        "o",
        "re"
      ],
      [
        "an",
        "s"
      ],
      [
        "Ġf",
        "rom"
      ],
      [
        "ur",
        "al"
      ],
      [
        "ric",
        "ul"
      ],
      [
        "Ġ",
        "2"
      ],
      [
        "d",
        "i"
      ],
      [
        "Ġ",
        "P"
      ],
      [
        "ter",
        "n"
      ],
      [
        "Ġp",
        "hilosop"
      ],
      [
        "ti",
        "m"
      ],
      [
        "at",
        "ed"
      ],
      [
        "ĠI",
        "n"
      ],
      [
        "Ġ==",
        "="
      ],
      [
        "ic",
        "h"
      ],
      [
        "p",
        "p"
      ],
      [
        "Ġs",
        "e"
      ],
      [
        "Ġ",
        "D"
      ],
      [
        "m",
        "s"
      ],
      [
        "Ġw",
        "as"
      ],
      [
        "ĠInd",
        "ia"
      ],
      [
        "o",
        "log"
      ],
      [
        "c",
        "es"
      ],
      [
        "n",
        "ess"
      ],
      [
        "Ġwh",
        "ich"
      ],
      [
        "a",
        "m"
      ],
      [
        "0",
        "0"
      ],
      [
        "Ġin",
        "f"
      ],
      [
        "Ġco",
        "s"
      ],
      [
        "Ġc",
        "ent"
      ],
      [
        "ĠB",
        "ra"
      ],
      [
        "i",
        "es"
      ],
      [
        "ĠBra",
        "h"
      ],
      [
        "ci",
        "ous"
      ],
      [
        "b",
        "le"
      ],
      [
        "Ġ",
        "v"
      ],
      [
        "ti",
        "ve"
      ],
      [
        "Ġw",
        "or"
      ],
      [
        "Ġsu",
        "b"
      ],
      [
        "Ġcos",
        "mic"
      ],
      [
        "ĠBrah",
        "man"
      ],
      [
        "cious",
        "ness"
      ],
      [
        "¬",
        "à¦"
      ],
      [
        "¼",
        "à¦¾"
      ],
      [
        "ĵ",
        "à¦"
      ],
      [
        "à¤",
        "¨"
      ],
      [
        "à¤",
        "µ"
      ],
      [
        "à¤",
        "¸"
      ],
      [
        "à¤",
        "Ł"
      ],
      [
        "à¦",
        "¼à¦¾"
      ],
      [
        "à¦",
        "ĵà¦"
      ],
      [
        "Ġà¤",
        "®"
      ],
      [
        "Ġà¤",
        "ĸ"
      ],
      [
        "à§",
        "į"
      ],
      [
        "à¦ĵà¦",
        "¯"
      ],
      [
        "Ġs",
        "t"
      ],
      [
        "Ġ",
        "G"
      ],
      [
        "d",
        "e"
      ],
      [
        "Ġ",
        "en"
      ],
      [
        "as",
        "t"
      ],
      [
        "er",
        "i"
      ],
      [
        "b",
        "er"
      ],
      [
        "Ġ",
        "H"
      ],
      [
        "tion",
        "s"
      ],
      [
        "Ġh",
        "a"
      ],
      [
        "s",
        "o"
      ],
      [
        "Ġa",
        "c"
      ],
      [
        "Ġd",
        "i"
      ],
      [
        "u",
        "m"
      ],
      [
        "o",
        "g"
      ],
      [
        "Ġsu",
        "ch"
      ],
      [
        "es",
        "t"
      ],
      [
        "Ġf",
        "o"
      ],
      [
        "Ġex",
        "p"
      ],
      [
        "a",
        "nd"
      ],
      [
        "u",
        "gh"
      ],
      [
        "an",
        "t"
      ],
      [
        "o",
        "t"
      ],
      [
        "Ġag",
        "ricul"
      ],
      [
        "Ġhistor",
        "y"
      ],
      [
        "Ġ",
        "r"
      ],
      [
        "Ġs",
        "tu"
      ],
      [
        "tu",
        "re"
      ],
      [
        "Ġcent",
        "ur"
      ],
      [
        "u",
        "re"
      ],
      [
        "h",
        "ar"
      ],
      [
        "Ġ",
        "F"
      ],
      [
        "Ġa",
        "r"
      ],
      [
        "Ġ",
        "N"
      ],
      [
        "Ġ",
        "id"
      ],
      [
        "ta",
        "in"
      ],
      [
        "ment",
        "al"
      ],
      [
        "is",
        "m"
      ],
      [
        "Ġmathema",
        "tics"
      ],
      [
        "Ġp",
        "ar"
      ],
      [
        "Ġd",
        "is"
      ],
      [
        "e",
        "w"
      ],
      [
        "e",
        "ct"
      ],
      [
        "Ġin",
        "t"
      ],
      [
        "Ġal",
        "l"
      ],
      [
        "Ġphilosop",
        "hy"
      ],
      [
        "'",
        "s"
      ],
      [
        "v",
        "id"
      ],
      [
        "Ġ",
        "k"
      ],
      [
        "i",
        "an"
      ],
      [
        "f",
        "f"
      ],
      [
        "al",
        "ity"
      ],
      [
        "st",
        "r"
      ],
      [
        "Ġinc",
        "lu"
      ],
      [
        "c",
        "on"
      ],
      [
        "Ġ",
        "W"
      ],
      [
        "Ġ",
        "ri"
      ],
      [
        "ĠC",
        "on"
      ],
      [
        "Ġ1",
        "9"
      ],
      [
        "in",
        "d"
      ],
      [
        "i",
        "g"
      ],
      [
        "i",
        "m"
      ],
      [
        "o",
        "s"
      ],
      [
        "lo",
        "p"
      ],
      [
        "i",
        "z"
      ],
      [
        "Ġh",
        "as"
      ],
      [
        "ment",
        "s"
      ],
      [
        "e",
        "t"
      ],
      [
        "Ġ",
        "\""
      ],
      [
        "al",
        "ly"
      ],
      [
        "ti",
        "es"
      ],
      [
        "Ġt",
        "e"
      ],
      [
        "ĠĠ",
        "ĠĠ"
      ],
      [
        "Ġcon",
        "t"
      ],
      [
        "Ġcentur",
        "y"
      ],
      [
        "t",
        "ural"
      ],
      [
        "st",
        "e"
      ],
      [
        "Ġ",
        "un"
      ],
      [
        "Ġha",
        "ve"
      ],
      [
        "â",
        "Ģ"
      ],
      [
        "ve",
        "lop"
      ],
      [
        "Ġa",
        "t"
      ],
      [
        "in",
        "e"
      ],
      [
        "Ġs",
        "y"
      ],
      [
        "Ġw",
        "ere"
      ],
      [
        "Ġsci",
        "ence"
      ],
      [
        "d",
        "s"
      ],
      [
        "Ġthe",
        "or"
      ],
      [
        "Ġf",
        "und"
      ],
      [
        "ct",
        "u"
      ],
      [
        "d",
        "ing"
      ],
      [
        "Ġg",
        "en"
      ],
      [
        "ti",
        "v"
      ],
      [
        "it",
        "e"
      ],
      [
        "Ġde",
        "velop"
      ],
      [
        "Ġit",
        "s"
      ],
      [
        "l",
        "d"
      ],
      [
        "re",
        "d"
      ],
      [
        "Ġm",
        "an"
      ],
      [
        "t",
        "en"
      ],
      [
        "Ġm",
        "o"
      ],
      [
        "el",
        "f"
      ],
      [
        "Ġ",
        "i"
      ],
      [
        "Ġc",
        "h"
      ],
      [
        "ar",
        "y"
      ],
      [
        "ĠI",
        "t"
      ],
      [
        "ĠT",
        "h"
      ],
      [
        "lo",
        "w"
      ],
      [
        "Ġ",
        "R"
      ],
      [
        "ic",
        "s"
      ],
      [
        "Ġex",
        "ist"
      ],
      [
        "Ġstu",
        "d"
      ],
      [
        "l",
        "ed"
      ],
      [
        "Ġsci",
        "enti"
      ],
      [
        "Ġ2",
        "0"
      ],
      [
        "a",
        "mental"
      ],
      [
        "d",
        "er"
      ],
      [
        "re",
        "as"
      ],
      [
        "Ġre",
        "ality"
      ],
      [
        "Ġcom",
        "p"
      ],
      [
        "Ġfund",
        "amental"
      ],
      [
        "r",
        "y"
      ],
      [
        "er",
        "n"
      ],
      [
        "a",
        "y"
      ],
      [
        "Ġo",
        "ther"
      ],
      [
        "an",
        "g"
      ],
      [
        "ro",
        "p"
      ],
      [
        "tern",
        "al"
      ],
      [
        "Ġthe",
        "ir"
      ],
      [
        "Ġpro",
        "du"
      ],
      [
        "e",
        "ar"
      ],
      [
        "m",
        "er"
      ],
      [
        "Ġo",
        "b"
      ],
      [
        "an",
        "ce"
      ],
      [
        "Ġm",
        "od"
      ],
      [
        "olog",
        "y"
      ],
      [
        "Ġri",
        "gh"
      ],
      [
        "at",
        "es"
      ],
      [
        "Ġa",
        "pp"
      ],
      [
        "ĠA",
        "t"
      ],
      [
        "n",
        "ow"
      ],
      [
        "Ġ",
        "le"
      ],
      [
        "Ġc",
        "an"
      ],
      [
        "Ġs",
        "elf"
      ],
      [
        "Ġstud",
        "y"
      ],
      [
        "Ġa",
        "b"
      ],
      [
        "Ġa",
        "d"
      ],
      [
        "Ġa",
        "ction"
      ],
      [
        "Ġp",
        "o"
      ],
      [
        "Ġm",
        "ind"
      ],
      [
        "Ġal",
        "so"
      ],
      [
        "l",
        "ic"
      ],
      [
        "Ġ",
        "O"
      ],
      [
        "Ġs",
        "us"
      ],
      [
        "Ġinf",
        "in"
      ],
      [
        "Ġso",
        "ci"
      ],
      [
        "Ġ",
        "y"
      ],
      [
        "th",
        "od"
      ],
      [
        "on",
        "g"
      ],
      [
        "ĠCon",
        "s"
      ],
      [
        "k",
        "e"
      ],
      [
        "Ġfor",
        "m"
      ],
      [
        "Ġi",
        "mp"
      ],
      [
        "Ġli",
        "ber"
      ],
      [
        "Ġsus",
        "tain"
      ],
      [
        "h",
        "a"
      ],
      [
        "r",
        "u"
      ],
      [
        "ation",
        "al"
      ],
      [
        "tim",
        "ate"
      ],
      [
        "Ġsy",
        "ste"
      ],
      [
        "Ġexist",
        "ence"
      ],
      [
        "a",
        "ge"
      ],
      [
        "Ġ",
        "Y"
      ],
      [
        "Ġhistor",
        "ical"
      ],
      [
        "Ġn",
        "ot"
      ],
      [
        "Ġth",
        "is"
      ],
      [
        "Ġinfin",
        "ite"
      ],
      [
        "a",
        "b"
      ],
      [
        "i",
        "el"
      ],
      [
        "at",
        "er"
      ],
      [
        "Ġ",
        "ul"
      ],
      [
        "Ġe",
        "mp"
      ],
      [
        "Ġre",
        "s"
      ],
      [
        "Ġor",
        "der"
      ],
      [
        "Ġk",
        "now"
      ],
      [
        "a",
        "ch"
      ],
      [
        "u",
        "p"
      ],
      [
        "u",
        "man"
      ],
      [
        "Ġt",
        "ra"
      ],
      [
        "har",
        "ma"
      ],
      [
        "Ġul",
        "timate"
      ],
      [
        "re",
        "e"
      ],
      [
        "Ġm",
        "ore"
      ],
      [
        "Ġn",
        "at"
      ],
      [
        "Ġme",
        "thod"
      ],
      [
        "is",
        "h"
      ],
      [
        "Ġf",
        "lu"
      ],
      [
        "ar",
        "m"
      ],
      [
        "Ġcons",
        "ciousness"
      ],
      [
        "og",
        "a"
      ],
      [
        "Ġliber",
        "ation"
      ],
      [
        "Ġsustain",
        "ing"
      ],
      [
        "ĠY",
        "oga"
      ],
      [
        "c",
        "ed"
      ],
      [
        "«",
        "à¤¸"
      ],
      [
        "¬",
        "à¤"
      ],
      [
        "°",
        "à¤"
      ],
      [
        "¸",
        "à¦"
      ],
      [
        "¹",
        "à¦ĵà¦¯"
      ],
      [
        "ħ",
        "à¤"
      ],
      [
        "ī",
        "à¤°"
      ],
      [
        "à¤",
        "®"
      ],
      [
        "à¤",
        "²"
      ],
      [
        "à¤",
        "¼"
      ],
      [
        "à¤",
        "Ĥ"
      ],
      [
        "à¤",
        "ķ"
      ],
      [
        "à¤",
        "Ľ"
      ],
      [
        "en",
        "tical"
      ],
      [
        "à¦",
        "¬"
      ],
      [
        "à¦",
        "°"
      ],
      [
        "à¦",
        "²"
      ],
      [
        "à¦",
        "·"
      ],
      [
        "à¦",
        "¿"
      ],
      [
        "à¦",
        "Ł"
      ],
      [
        "à¦",
        "Ń"
      ],
      [
        "à¦",
        "¬à¦"
      ],
      [
        "Ġc",
        "ess"
      ],
      [
        "Ġà¤",
        "§"
      ],
      [
        "Ġà¤",
        "¸"
      ],
      [
        "Ġà¤",
        "ľ"
      ],
      [
        "Ġà¤",
        "«à¤¸"
      ],
      [
        "Ġà¤",
        "¬à¤"
      ],
      [
        "Ġà¤",
        "°à¤"
      ],
      [
        "Ġà¤",
        "ħà¤"
      ],
      [
        "Ġà¤",
        "īà¤°"
      ],
      [
        "Ġe",
        "ternal"
      ],
      [
        "Ġà¦",
        "¬"
      ],
      [
        "Ġà¦",
        "ĸ"
      ],
      [
        "Ġà¦",
        "Ń"
      ],
      [
        "Ġà¦",
        "¸à¦"
      ],
      [
        "Ġà¦",
        "¹à¦ĵà¦¯"
      ],
      [
        "à§",
        "ģ"
      ],
      [
        "à§",
        "ĥ"
      ],
      [
        "à§",
        "ĩ"
      ],
      [
        "à§",
        "ĭ"
      ],
      [
        "Ġà¤ķ",
        "à¤°"
      ],
      [
        "à¥ĩ",
        "à¤Ĥ"
      ],
      [
        "te",
        "ous"
      ],
      [
        "à¤°",
[...]
