{
  "version": "1.0",
  "truncation": null,
  "padding": null,
  "added_tokens": [
    {
      "id": 0,
      "content": "<pad>",
      "single_word": false,
      "lstrip": false,
      "rstrip": false,
      "normalized": false,
      "special": true
    },
    {
      "id": 1,
      "content": "<s>",
      "single_word": false,
      "lstrip": false,
      "rstrip": false,
      "normalized": false,
      "special": true
    },
    {
      "id": 2,
      "content": "</s>",
      "single_word": false,
      "lstrip": false,
      "rstrip": false,
      "normalized": false,
      "special": true
    },
    {
      "id": 3,
      "content": "<unk>",
      "single_word": false,
      "lstrip": false,
      "rstrip": false,
      "normalized": false,
      "special": true
    },
    {
      "id": 4,
      "content": "<mask>",
      "single_word": false,
      "lstrip": false,
      "rstrip": false,
      "normalized": false,
      "special": true
    }
  ],
  "normalizer": null,
  "pre_tokenizer": {
    "type": "ByteLevel",
    "add_prefix_space": true,
    "trim_offsets": true,
    "use_regex": true
  },
  "post_processor": null,
  "decoder": null,
  "model": {
    "type": "BPE",
    "dropout": null,
    "unk_token": null,
    "continuing_subword_prefix": null,
    "end_of_word_suffix": null,
    "fuse_unk": false,
    "byte_fallback": false,
    "ignore_merges": false,
    "vocab": {
      "<pad>": 0,
      "<s>": 1,
      "</s>": 2,
      "<unk>": 3,
      "<mask>": 4,
      "-": 5,
      ".": 6,
      ":": 7,
      "?": 8,
      "A": 9,
      "C": 10,
      "D": 11,
      "F": 12,
      "H": 13,
      "O": 14,
      "Q": 15,
      "S": 16,
      "T": 17,
      "V": 18,
      "a": 19,
      "b": 20,
      "c": 21,
      "d": 22,
      "e": 23,
      "f": 24,
      "g": 25,
      "h": 26,
      "i": 27,
      "k": 28,
      "l": 29,
      "m": 30,
      "n": 31,
      "o": 32,
      "p": 33,
      "r": 34,
      "s": 35,
      "t": 36,
      "u": 37,
      "v": 38,
      "w": 39,
      "x": 40,
      "y": 41,
      "z": 42,
      "¡": 43,
      "¢": 44,
      "£": 45,
      "¤": 46,
      "¥": 47,
      "¦": 48,
      "§": 49,
      "¨": 50,
      "©": 51,
      "ª": 52,
      "«": 53,
      "¬": 54,
      "®": 55,
      "¯": 56,
      "°": 57,
      "±": 58,
      "²": 59,
      "³": 60,
      "´": 61,
      "µ": 62,
      "¶": 63,
      "·": 64,
      "¸": 65,
      "¹": 66,
      "¼": 67,
      "¾": 68,
      "¿": 69,
      "à": 70,
      "Ċ": 71,
      "Ġ": 72,
      "Ģ": 73,
      "ģ": 74,
      "Ĥ": 75,
      "ĥ": 76,
      "ħ": 77,
      "Ĩ": 78,
      "ĩ": 79,
      "Ī": 80,
      "ī": 81,
      "Ĭ": 82,
      "ĭ": 83,
      "Į": 84,
      "į": 85,
      "ı": 86,
      "ĵ": 87,
      "Ķ": 88,
      "ķ": 89,
      "ĸ": 90,
      "Ĺ": 91,
      "Ļ": 92,
      "ļ": 93,
      "Ľ": 94,
      "ľ": 95,
      "Ł": 96,
      "ł": 97,
      "Ń": 98,
      "à¦": 99,
      "à®": 100,
      "à¤": 101,
      "Ġà¦": 102,
      "à§": 103,
      "à¥": 104,
      "à¯": 105,
      "Ġà¤": 106,
      "à¦¾": 107,
      "à¯į": 108,
      "à¥¤": 109,
      "Ġà®": 110,
      "à§ĩ": 111,
      "à®¿": 112,
      "à¯ģ": 113,
      "à¤¾": 114,
      "à§°": 115,
      "à¦¿": 116,
      "à®ķ": 117,
      "à¦²": 118,
      "à¦°": 119,
      "à¦ķ": 120,
      "à®¯": 121,
      "Ġà¦ķ": 122,
      "à®³": 123,
      "à§ģ": 124,
      "Ġà¦¬": 125,
      "à¦·": 126,
      "à®¾": 127,
      "à¥į": 128,
      "à¦¬": 129,
      "à¦Ľ": 130,
      "Ġà¦Ĩ": 131,
      "à¥Ģ": 132,
      "Ġà¤ķ": 133,
      "à¦¯": 134,
      "à¤°": 135,
      "à¦¼": 136,
      "à§į": 137,
      "à§ĩà¥¤": 138,
      "à®²": 139,
      "à¤¿": 140,
      "à¦¨": 141,
      "Ġà¤¹": 142,
      "à¥ĩ": 143,
      "à§ĥ": 144,
      "à¤Ĥ": 145,
      "à¥Ī": 146,
      "à¦®": 147,
      "à¤¨": 148,
      "à¦¤": 149,
      "Ġà®µ": 150,
      "à®±": 151,
      "à®¤": 152,
      "à¤¤": 153,
      "er": 154,
      "à¦·à¦ķ": 155,
      "Ġà¦Ń": 156,
      "à§ĭ": 157,
      "à¯Ī": 158,
      "à®°": 159,
      "à®ª": 160,
      "à®Ł": 161,
      "à¤¸": 162,
      "es": 163,
      "à¥Īà¥¤": 164,
      "in": 165,
      "Ġf": 166,
      "Ġà¦¹": 167,
      "à¦Ń": 168,
      "Ġà®ī": 169,
      "à¯ģ.": 170,
      "à®³à®¤": 171,
      "Ġà¦ļ": 172,
      "à§±": 173,
      "à®®": 174,
      "Ġà¦ĸ": 175,
      "Ġà¤®": 176,
      "à¥ĭ": 177,
      "on": 178,
      "à¤ķ": 179,
      "à¤®": 180,
      "ti": 181,
      "à®©": 182,
      "Ġà®¨": 183,
      "à¦¸": 184,
      "he": 185,
      "Ġà®ª": 186,
      "Ġà¦¸": 187,
      "Ġà¦ª": 188,
      "à¦ľ": 189,
      "à¦Ł": 190,
      "Ġà¦®": 191,
      "an": 192,
      "à¤ļ": 193,
      "à¦¼à¦¾": 194,
      "Ġà¤¬": 195,
      "Ġà¤ħ": 196,
      "ar": 197,
      "à¦¼à¥¤": 198,
      "Ġà¦Ĩà¦Ľ": 199,
      "Ġà¤¸": 200,
      "à¤²": 201,
      "ic": 202,
      "à¤Ĺ": 203,
      "à¤¯": 204,
      "à¯Ĩ": 205,
      "Ġà®īà®³": 206,
      "Ġà¦ľ": 207,
      "à§Ģ": 208,
      "à®µ": 209,
      "Ġà®®": 210,
      "à¦ļ": 211,
      "Ġà¦¨": 212,
      "à¯į.": 213,
      "à®ļ": 214,
      "Ġà®¤": 215,
      "Ġà®ķ": 216,
      "à¦¹": 217,
      "Ġs": 218,
      "ro": 219,
      "à¤Ľ": 220,
      "Ġà¤ħà¤ļ": 221,
      "Ġp": 222,
      "à¤µ": 223,
      "al": 224,
      "à¤¹": 225,
      "arm": 226,
      "à§Ī": 227,
      "Ġà¦ķà¦°": 228,
      "tion": 229,
      "à¤¶": 230,
      "re": 231,
      "Ġà¤ª": 232,
      "à¤Ł": 233,
      "at": 234,
      "Ġà¦¹à¦¯": 235,
      "à¤Ĥà¥¤": 236,
      "Ġc": 237,
      "Ġà¦«": 238,
      "Ġà¦²": 239,
      "Ġfarm": 240,
      "Ġà¤ī": 241,
      "à¥ģ": 242,
      "Ġà¤ĸ": 243,
      "Ġà¦¶": 244,
      "Ġà¦Ĩà§°": 245,
      "Ġà®¨à®©": 246,
      "Ġà®ļ": 247,
      "à®´": 248,
      "Ġà¦ķà§°": 249,
      "Ġà®ªà®¯": 250,
      "à®µà®ļ": 251,
      "Ġà¤«": 252,
      "à¦¢": 253,
      "à¦ļà¦²": 254,
      "à®Ļ": 255,
      "ing": 256,
      "à§°à¦¤": 257,
      "Ġfo": 258,
      "ers": 259,
      "ĵà¦¯": 260,
      "à¦ĵà¦¯": 261,
      "Ġà¦¦": 262,
      "Ġà¦Ĩà¦²": 263,
      "Ġà¦§": 264,
      "Ġà¦ī": 265,
      "Ġà¦¯": 266,
      "Ġà¦¨à¦¤": 267,
      "à¦ª": 268,
      "à¦ķà¦²": 269,
      "Ġan": 270,
      "Ġhe": 271,
      "à¤¢": 272,
      "à¤¼": 273,
      "Ġà¤¬à¤¢": 274,
      "ain": 275,
      "et": 276,
      "Ġà¦Ĩà¦ľ": 277,
      "Ġà¦¸à¦®": 278,
      "à¥Ĥ": 279,
      "à¥ĭà¤Ĥ": 280,
      "à¤¸à¤²": 281,
      "Ġà¤«à¤¸à¤²": 282,
      "ce": 283,
      "Ġà¤Ĩ": 284,
      "à¤ª": 285,
      "st": 286,
      "°à¤¹": 287,
      "Ġà¤°à¤¹": 288,
      "à¥Īà¤Ĥà¥¤": 289,
      "Ġin": 290,
      "Ġfor": 291,
      "à¥¤à¥¤": 292,
      ".à¥¤": 293,
      "à¦¡": 294,
      "à¦¼à§ĩ": 295,
      "An": 296,
      "Qu": 297,
      "sw": 298,
      "ĠAn": 299,
      "ĠQu": 300,
      "estion": 301,
      "swer": 302,
      "ĠAnswer": 303,
      "ĠQuestion": 304,
      "à¦¸à¦²": 305,
      "Ġà¦«à¦¸à¦²": 306,
      "Ġà¦ķà¦°à¦Ľ": 307,
      "à¦¦": 308,
      "à¦·à¦ķà¦¦": 309,
      "Ġà¦ľà¦¨": 310,
      "à¦¬à¦¹": 311,
      "à¤ľ": 312,
      "à¤°à¤¶": 313,
      "à¤¤à¤°": 314,
      "à¦·à¦ķà¦°": 315,
      "Ġà¤īà¤¤": 316,
      "Ġand": 317,
      "à¤ı": 318,
      "Ġm": 319,
      "Ġi": 320,
      "lp": 321,
      "ts": 322,
      "à¥ĩà¤Ĥ": 323,
      "Ġhelp": 324,
      "rop": 325,
      "Ġg": 326,
      "Ġb": 327,
      "all": 328,
      "li": 329,
      "Ġà¤²": 330,
      "ur": 331,
      "Ġn": 332,
      "Ġfarming": 333,
      "le": 334,
      "Ġfarmers": 335,
      "om": 336,
      "Ġa": 337,
      "à¯ģ.à¥¤": 338,
      "à¦ģ": 339,
      "à§°à¦ķ": 340,
      "à¦·à¦ķà§°": 341,
      "Ġà¦ļà§°à¦ķ": 342,
      "à¦ļà¦¨": 343,
      "Ġà¦¶à¦¸": 344,
      "Ġà¦Ĩà§°à¦®": 345,
      "à¯ĩ": 346,
      "à®¯à®²": 347,
      "Ġà®µà®¯à®²": 348,
      "ĩà®©": 349,
      "Ġà®ĩà®©": 350,
      "à®ķà®µ": 351,
      "Ġà®®à®´": 352,
      "à¦¼à¦¿": 353,
      "à¦£": 354,
      "à¦ĸ": 355,
      "à§°à¦·": 356,
      "Ġà¦¬à¦¤": 357,
      "Ġà¦¬à§°à¦·": 358,
      "à¦·à¦ķà¦¸": 359,
      "à§±à¦¨": 360,
      "Ġà¦¬à¦¤à§°": 361,
      "à¦·à¦ķà¦¸à¦ķà¦²": 362,
      "à®¨": 363,
      "Ġà®²": 364,
      "à®ķà®±": 365,
      "à®¯à®°": 366,
      "à®ªà®Ł": 367,
      "à®ªà®®": 368,
      "Ġà®īà®°": 369,
      "Ġà®īà®¯à®°": 370,
      "Ġà®¨à®²": 371,
      "Ġà®®à®±": 372,
      "Ġà®¤à®ķ": 373,
      "à®´à®Ļ": 374,
      "ħà®°": 375,
      "à¯Ģ": 376,
      "à¯Ĭ": 377,
      "Ġà®ħà®°": 378,
      "à®ķà®³": 379,
      "à®Łà®®": 380,
      "à®Łà®Ļ": 381,
      "Ġà®ħà®°à®ļ": 382,
      "à¦¥": 383,
      "Ġà¦¬à¦¢": 384,
      "à§ĩà¥¤à¥¤": 385,
      "à¦¨à§°": 386,
      "à§±à§°à¦¤": 387,
      "Ġà¦ªà¦¥": 388,
      "Ġà¦«à¦ļà¦²": 389,
      "Ġà¦īà§°": 390,
      "Ķà¤°": 391,
      "Ġà¤Ķà¤°": 392,
      "ig": 393,
      "Ġà¤¨": 394,
      "as": 395,
      "ves": 396,
      "ĠD": 397,
      "Ġw": 398,
      "ation": 399,
      "à¤Ī": 400,
      "od": 401,
      "th": 402,
      "rec": 403,
      "du": 404,
      "il": 405,
      "oil": 406,
      "ty": 407,
      "Ġà¤ķà¤°": 408,
      "Ġsoil": 409,
      "Ġhelps": 410,
      "duce": 411,
      "ric": 412,
      "Ġà¤Ń": 413,
      "Ġcrop": 414,
      "gan": 415,
      "rgan": 416,
      "Ġà¤¡": 417,
      "Ġà¤¶": 418,
      "à¤¿à¤Ĥ": 419,
      "rganic": 420,
      "erti": 421,
      "Ġferti": 422,
      "atur": 423,
      "Ġnatur": 424,
      "Ġfertili": 425,
      "The": 426,
      "ĠThe": 427,
      "Ġpes": 428,
      "Ġgo": 429,
      "Ġinc": 430,
      "Ġpro": 431,
      "ab": 432,
      "Ġe": 433,
      "Ġà¤¦": 434,
      "able": 435,
      "tic": 436,
      "mic": 437,
      "Ġo": 438,
      "à¤§": 439,
      "nt": 440,
      "à¤Ń": 441,
      "che": 442,
      "me": 443,
      "Ġà¤ľ": 444,
      "des": 445,
      "ides": 446,
      "Ġà¤Ĩà¤¯": 447,
      "à¤¦": 448,
      "Ġà¤µ": 449,
      "à¤¾à¤Ĥ": 450,
      "à¦ł": 451,
      "à¦°à¦¤": 452,
      "à¦¬à¦°à¦¤": 453,
      "Ġà¦īà¦°": 454,
      "à§Ģà¥¤": 455,
      "Łà¦®": 456,
      "Ġà¦ĵ": 457,
      "Ġà¦Łà¦®": 458,
      "à¦¬à¦ľ": 459,
      "Ġà¦¸à¦¬à¦ľ": 460,
      "à¦°à¦ķ": 461,
      "à¦°à¦ķà¦²": 462,
      "Ġà¦¸à¦°à¦ķ": 463,
      "à¦§": 464,
      "à¦Ĥ": 465,
      "à¦¾à¦Ĥ": 466,
      "Ġà¦¬à¦¹": 467,
      "à¦¯à¦¬à¦¹": 468,
      "à¦¨à¦ķ": 469,
      "à¦Ńà¦ľ": 470,
      "à¦Ńà¦ľà¦¨à¦ķ": 471,
      "à¦¶": 472,
      "à¦¬à¦¨": 473,
      "Ġà¦Ĩà¦¬à¦¹": 474,
      "à§ĭà¥¤": 475,
      "Ġà¦¹à¦ĵà¦¯": 476,
      "ıà¦ķ": 477,
      "Ġà¦ıà¦ķ": 478,
      "à¦¬à¦¸": 479,
      "Ġà¦Ĩà¦¯": 480,
      "à¦¯à¦¬à¦¸": 481,
      "Ġà¦ıà¦ķà¦Ł": 482,
      "à¦¼à¥¤à¥¤": 483,
      "à¥Īà¥¤à¥¤": 484,
      ".?": 485,
      "à¤¾à¥¤": 486,
      "Łà¤®": 487,
      "à¤«": 488,
      "à¤¬": 489,
      "Ġà¤Łà¤®": 490,
      "à¦¿à¥¤": 491,
      "Ġà¤¸à¤¬": 492,
      "à¤Łà¤°": 493,
      "à¤¼à¥ĩ": 494,
      "Ġà¤Ĩà¤²": 495,
      "à§ĩà¥¤?": 496,
      "aves": 497,
      "el": 498,
      "fic": 499,
      "ip": 500,
      "iel": 501,
      "ific": 502,
      "ly": 503,
      "nific": 504,
      "rr": 505,
      "rip": 506,
      "tly": 507,
      "yiel": 508,
      "Ġyiel": 509,
      "antly": 510,
      "Ġsig": 511,
      "Ġsaves": 512,
      "reas": 513,
      "ater": 514,
      "Ġirr": 515,
      "igation": 516,
      "ĠDrip": 517,
      "Ġwater": 518,
      "Ġincreas": 519,
      "nificantly": 520,
      "Ġyield": 521,
      "Ġsignificantly": 522,
      "Ġirrigation": 523,
      "Ġincreases": 524,
      "Ġà¤¯": 525,
      "à¤°à¤ķ": 526,
      "Ġà¤¸à¤°à¤ķ": 527,
      "à¤ľà¤¨": 528,
      "Ġà¤¨à¤Ī": 529,
      "Organic": 530,
      "ast": 531,
      "dic": 532,
      "eat": 533,
      "eas": 534,
      "fall": 535,
      "her": 536,
      "ir": 537,
      "is": 538,
      "iv": 539,
      "iod": 540,
      "irec": 541,
      "ity": 542,
      "ket": 543,
      "mp": 544,
      "oon": 545,
      "rain": 546,
      "soon": 547,
      "ter": 548,
      "the": 549,
      "Ġth": 550,
      "ĠOrganic": 551,
      "Ġrain": 552,
      "Ġthe": 553,
      "à¥ĥ": 554,
      "à¤°à¤¤": 555,
      "à¥ĩà¤Ĥà¥¤": 556,
      "onsoon": 557,
      "arket": 558,
      "Ġseas": 559,
      "roves": 560,
      "Ġpre": 561,
      "Ġpric": 562,
      "à¤µà¤°à¤¤": 563,
      "alth": 564,
      "à¤¶à¤ķ": 565,
      "à¤Łà¤¨": 566,
      "Ġà¤īà¤°": 567,
      "Ġà¤īà¤ª": 568,
      "Ġforec": 569,
      "ersity": 570,
      "Ġhealth": 571,
      "etter": 572,
      "Ġmonsoon": 573,
      "Ġmarket": 574,
      "Ġimp": 575,
      "Ġget": 576,
      "Ġbiod": 577,
      "Ġbetter": 578,
      "ally": 579,
      "ĠDirec": 580,
      "Ġweat": 581,
      "Ġnaturally": 582,
      "Ġgood": 583,
      "Ġproduce": 584,
      "dicts": 585,
      "iversity": 586,
      "Ġthis": 587,
      "Ġrainfall": 588,
      "Ġtheir": 589,
      "Ġseason": 590,
      "Ġpredicts": 591,
      "Ġprices": 592,
      "Ġà¤īà¤ªà¤¯": 593,
      "Ġforecast": 594,
      "Ġmarketing": 595,
      "Ġimproves": 596,
      "Ġbiodiversity": 597,
      "ĠDirect": 598,
      "Ġweather": 599,
      "Crop": 600,
      "tain": 601,
      "tation": 602,
      "Ġro": 603,
      "Ġre": 604,
      "ĠCrop": 605,
      "Ġà¤§": 606,
      "à¤ļà¤¤": 607,
      "Ġà¤¬à¤ļà¤¤": 608,
      "Ġà¤ħà¤ª": 609,
      "à¤Łà¤®": 610,
      "aintain": 611,
      "Ġmaintain": 612,
      "Ġfertility": 613,
      "Ġpests": 614,
      "Ġrotation": 615,
      "Ġreduce": 616,
      "Ġà¤ħà¤ªà¤¨": 617,
      "à¥Į": 618,
      "à¤¸à¤®": 619,
      "Ġà¤¬à¤¹": 620,
      "à¤µà¤¨": 621,
      "Ġà¤Ĩà¤ľ": 622,
      "à¦¾à¥¤": 623,
      "Su": 624,
      "ac": 625,
      "bat": 626,
      "cts": 627,
      "ects": 628,
      "ff": 629,
      "ge": 630,
      "gric": 631,
      "han": 632,
      "lt": 633,
      "mat": 634,
      "rac": 635,
      "ure": 636,
      "ult": 637,
      "ĠSu": 638,
      "à¯ģ.?": 639,
      "Ġprac": 640,
      "Ġcli": 641,
      "Ġcom": 642,
      "Ġchan": 643,
      "ainable": 644,
      "stainable": 645,
      "Ġagric": 646,
      "Ġeff": 647,
      "tices": 648,
      "mate": 649,
      "ulture": 650,
      "ĠSustainable": 651,
      "Ġpractices": 652,
      "Ġclimate": 653,
      "Ġcombat": 654,
      "Ġchange": 655,
      "Ġagriculture": 656,
      "Ġeffects": 657,
      "à¤¯à¤°": 658,
      "Ver": 659,
      "eg": 660,
      "lle": 661,
      "ost": 662,
      "post": 663,
      "veg": 664,
      "xce": 665,
      "zer": 666,
      "ĠVer": 667,
      "Ġveg": 668,
      "etable": 669,
      "Ġis": 670,
      "ompost": 671,
      "Ġfertilizer": 672,
      "Ġexce": 673,
      "micompost": 674,
      "Ġorganic": 675,
      "llent": 676,
      "ĠVermicompost": 677,
      "Ġvegetable": 678,
      "Ġexcellent": 679,
      "Farm": 680,
      "ad": 681,
      "ead": 682,
      "sing": 683,
      "using": 684,
      "Ġon": 685,
      "Ġar": 686,
      "ĠFarm": 687,
      "Ġusing": 688,
      "hemic": 689,
      "Ġchemic": 690,
      "stead": 691,
      "Ġinstead": 692,
      "Ġnatural": 693,
      "Ġpestic": 694,
      "Ġof": 695,
      "Ġones": 696,
      "Ġare": 697,
      "ĠFarmers": 698,
      "Ġchemical": 699,
      "Ġpesticides": 700,
      "au": 701,
      "ew": 702,
      "lau": 703,
      "nche": 704,
      "nme": 705,
      "sur": 706,
      "ver": 707,
      "Ġlau": 708,
      "ıà¤ķ": 709,
      "à¤ĸ": 710,
      "Ġà¤ıà¤ķ": 711,
      "Ġà¤®à¤§": 712,
      "à¤®à¤ķ": 713,
      "ance": 714,
      "à¤²à¤¨": 715,
      "à¤¯à¤µ": 716,
      "Ġsche": 717,
      "à¤¹à¤¦": 718,
      "Ġinsur": 719,
      "Ġnew": 720,
      "Ġà¤¶à¤¹à¤¦": 721,
      "Ġgover": 722,
      "nched": 723,
      "nment": 724,
      "Ġlaunched": 725,
      "à¤¯à¤µà¤¸": 726,
      "Ġscheme": 727,
      "Ġinsurance": 728,
      "Ġgovernment": 729,
      "Hon": 730,
      "dd": 731,
      "ee": 732,
      "ey": 733,
      "ition": 734,
      "mall": 735,
      "vides": 736,
      "ĠHon": 737,
      "Ġsmall": 738,
      "Ġbee": 739,
      "ome": 740,
      "Ġadd": 741,
      "Ġincome": 742,
      "Ġprovides": 743,
      "itional": 744,
      "ĠHoney": 745,
      "Ġadditional": 746,
      "à¤¡": 747,
      "Ġà¤¤": 748,
      "Ġà¤Ĺ": 749,
      "à¥Ĥà¤Ĥ": 750,
      "Ġà¤ķà¤®": 751,
      "à¤ķà¤°": 752,
      "à¤ķà¤¤": 753,
      "à¤ķà¤®": 754,
      "Ġà¤¬à¤¨": 755,
      "Ġà¤ħà¤¤": 756,
      "Ġà¤¸à¤ķà¤¤": 757,
      "Ġà¤µà¤°": 758,
      "à¯į.à¥¤": 759,
      "à¤¾à¥¤à¥¤": 760,
      "à§Ģà¥¤à¥¤": 761,
      "..": 762,
      "à¥Īà¤Ĥà¥¤à¥¤": 763,
      "à¥Ģà¥¤": 764,
      "à¦¾à¥¤à¥¤": 765,
      "à¥Īà¥¤?": 766,
      "à¯ģ..": 767,
      "à¦¿à¥¤à¥¤": 768,
      "à¥Ģà¥¤à¥¤": 769,
      "à§ĩà¥¤.": 770,
      "à¦¼à¥¤?": 771,
      "à¥¤?": 772,
      "à¯į.?": 773,
      "à¥ĩà¤Ĥà¥¤à¥¤": 774,
      "à¥Īà¤Ĥà¥¤?": 775,
      "à¦¼à¥¤.": 776,
      "à§Ģà¥¤?": 777,
      "à¤¾à¥¤?": 778,
      "à¥Īà¥¤.": 779,
      "à¯į..": 780,
      "à¦¾à¥¤?": 781,
      "à§Ģà¥¤.": 782,
      "à¦¿à¥¤?": 783,
      "à¥ĩà¤Ĥà¥¤?": 784,
      "à¥¤.": 785,
      "à¥Īà¤Ĥà¥¤.": 786,
      "à¦¿à¥¤.": 787,
      "à¦¾à¥¤.": 788,
      "à¤¾à¥¤.": 789,
      "à¥Ģà¥¤.": 790,
      "à¥ĩà¤Ĥà¥¤.": 791,
      "à¥Ģà¥¤?": 792
    },
    "merges": [
      [
        "à",
        "¦"
      ],
      [
        "à",
        "®"
      ],
      [
        "à",
        "¤"
      ],
      [
        "Ġ",
        "à¦"
      ],
      [
        "à",
        "§"
      ],
      [
        "à",
        "¥"
      ],
      [
        "à",
        "¯"
      ],
      [
        "Ġ",
        "à¤"
      ],
      [
        "à¦",
        "¾"
      ],
      [
        "à¯",
        "į"
      ],
      [
        "à¥",
        "¤"
      ],
      [
        "Ġ",
        "à®"
      ],
      [
        "à§",
        "ĩ"
      ],
      [
        "à®",
        "¿"
      ],
      [
        "à¯",
        "ģ"
      ],
      [
        "à¤",
        "¾"
      ],
      [
        "à§",
        "°"
      ],
      [
        "à¦",
        "¿"
      ],
      [
        "à®",
        "ķ"
      ],
      [
        "à¦",
        "²"
      ],
      [
        "à¦",
        "°"
      ],
      [
        "à¦",
        "ķ"
      ],
      [
        "à®",
        "¯"
      ],
      [
        "Ġà¦",
        "ķ"
      ],
      [
        "à®",
        "³"
      ],
      [
        "à§",
        "ģ"
      ],
      [
        "Ġà¦",
        "¬"
      ],
      [
        "à¦",
        "·"
      ],
      [
        "à®",
        "¾"
      ],
      [
        "à¥",
        "į"
      ],
      [
        "à¦",
        "¬"
      ],
      [
        "à¦",
        "Ľ"
      ],
      [
        "Ġà¦",
        "Ĩ"
      ],
      [
        "à¥",
        "Ģ"
      ],
      [
        "Ġà¤",
        "ķ"
      ],
      [
        "à¦",
        "¯"
      ],
      [
        "à¤",
        "°"
      ],
      [
        "à¦",
        "¼"
      ],
      [
        "à§",
        "į"
      ],
      [
        "à§ĩ",
        "à¥¤"
      ],
      [
        "à®",
        "²"
      ],
      [
        "à¤",
        "¿"
      ],
      [
        "à¦",
        "¨"
      ],
      [
        "Ġà¤",
        "¹"
      ],
      [
        "à¥",
        "ĩ"
      ],
      [
        "à§",
        "ĥ"
      ],
      [
        "à¤",
        "Ĥ"
      ],
      [
        "à¥",
        "Ī"
      ],
      [
        "à¦",
        "®"
      ],
      [
        "à¤",
        "¨"
      ],
      [
        "à¦",
        "¤"
      ],
      [
        "Ġà®",
        "µ"
      ],
      [
        "à®",
        "±"
      ],
      [
        "à®",
        "¤"
      ],
      [
        "à¤",
        "¤"
      ],
      [
        "e",
        "r"
      ],
      [
        "à¦·",
        "à¦ķ"
      ],
      [
        "Ġà¦",
        "Ń"
      ],
      [
        "à§",
        "ĭ"
      ],
      [
        "à¯",
        "Ī"
      ],
      [
        "à®",
        "°"
      ],
      [
        "à®",
        "ª"
      ],
      [
        "à®",
        "Ł"
      ],
      [
        "à¤",
        "¸"
      ],
      [
        "e",
        "s"
      ],
      [
        "à¥Ī",
        "à¥¤"
      ],
      [
        "i",
        "n"
      ],
      [
        "Ġ",
        "f"
      ],
      [
        "Ġà¦",
        "¹"
      ],
      [
        "à¦",
        "Ń"
      ],
      [
        "Ġà®",
        "ī"
      ],
      [
        "à¯ģ",
        "."
      ],
      [
        "à®³",
        "à®¤"
      ],
      [
        "Ġà¦",
        "ļ"
      ],
      [
        "à§",
        "±"
      ],
      [
        "à®",
        "®"
      ],
      [
        "Ġà¦",
        "ĸ"
      ],
      [
        "Ġà¤",
        "®"
      ],
      [
        "à¥",
        "ĭ"
      ],
      [
        "o",
        "n"
      ],
      [
        "à¤",
        "ķ"
      ],
      [
        "à¤",
        "®"
      ],
      [
        "t",
        "i"
      ],
      [
        "à®",
        "©"
      ],
      [
        "Ġà®",
        "¨"
      ],
      [
        "à¦",
        "¸"
      ],
      [
        "h",
        "e"
      ],
      [
        "Ġà®",
        "ª"
      ],
      [
        "Ġà¦",
        "¸"
      ],
      [
        "Ġà¦",
        "ª"
      ],
      [
        "à¦",
        "ľ"
      ],
      [
        "à¦",
        "Ł"
      ],
      [
        "Ġà¦",
        "®"
      ],
      [
        "a",
        "n"
      ],
      [
        "à¤",
        "ļ"
      ],
      [
        "à¦¼",
        "à¦¾"
      ],
      [
        "Ġà¤",
        "¬"
      ],
      [
        "Ġà¤",
        "ħ"
      ],
      [
        "a",
        "r"
      ],
      [
        "à¦¼",
        "à¥¤"
      ],
      [
        "Ġà¦Ĩ",
        "à¦Ľ"
      ],
      [
        "Ġà¤",
        "¸"
      ],
      [
        "à¤",
        "²"
      ],
      [
        "i",
        "c"
      ],
      [
        "à¤",
        "Ĺ"
      ],
      [
        "à¤",
        "¯"
      ],
      [
        "à¯",
        "Ĩ"
      ],
      [
        "Ġà®ī",
        "à®³"
      ],
      [
        "Ġà¦",
        "ľ"
      ],
      [
        "à§",
        "Ģ"
      ],
      [
        "à®",
        "µ"
      ],
      [
        "Ġà®",
        "®"
      ],
      [
        "à¦",
        "ļ"
      ],
      [
        "Ġà¦",
        "¨"
      ],
      [
        "à¯į",
        "."
      ],
      [
        "à®",
        "ļ"
      ],
      [
        "Ġà®",
        "¤"
      ],
      [
        "Ġà®",
        "ķ"
      ],
      [
        "à¦",
        "¹"
      ],
      [
        "Ġ",
        "s"
      ],
      [
        "r",
        "o"
      ],
      [
        "à¤",
        "Ľ"
      ],
      [
        "Ġà¤ħ",
        "à¤ļ"
      ],
      [
        "Ġ",
        "p"
      ],
      [
        "à¤",
        "µ"
      ],
      [
        "a",
        "l"
      ],
      [
        "à¤",
        "¹"
      ],
      [
        "ar",
        "m"
      ],
      [
        "à§",
        "Ī"
      ],
      [
        "Ġà¦ķ",
        "à¦°"
      ],
      [
        "ti",
        "on"
      ],
      [
        "à¤",
        "¶"
      ],
      [
        "r",
        "e"
      ],
      [
        "Ġà¤",
        "ª"
      ],
      [
        "à¤",
        "Ł"
      ],
      [
        "a",
        "t"
      ],
      [
        "Ġà¦¹",
        "à¦¯"
      ],
      [
        "à¤Ĥ",
        "à¥¤"
      ],
      [
        "Ġ",
        "c"
      ],
      [
        "Ġà¦",
        "«"
      ],
      [
        "Ġà¦",
        "²"
      ],
      [
        "Ġf",
        "arm"
      ],
      [
        "Ġà¤",
        "ī"
      ],
      [
        "à¥",
        "ģ"
      ],
      [
        "Ġà¤",
        "ĸ"
      ],
      [
        "Ġà¦",
        "¶"
      ],
      [
        "Ġà¦Ĩ",
        "à§°"
      ],
      [
        "Ġà®¨",
        "à®©"
      ],
      [
        "Ġà®",
        "ļ"
      ],
      [
        "à®",
        "´"
      ],
      [
        "Ġà¦ķ",
        "à§°"
      ],
      [
        "Ġà®ª",
        "à®¯"
      ],
      [
        "à®µ",
        "à®ļ"
      ],
      [
        "Ġà¤",
        "«"
      ],
      [
        "à¦",
        "¢"
      ],
      [
        "à¦ļ",
        "à¦²"
      ],
      [
        "à®",
        "Ļ"
      ],
      [
        "in",
        "g"
      ],
      [
        "à§°",
        "à¦¤"
      ],
      [
        "Ġf",
        "o"
      ],
      [
        "er",
        "s"
      ],
      [
        "ĵ",
        "à¦¯"
      ],
      [
        "à¦",
        "ĵà¦¯"
      ],
      [
        "Ġà¦",
        "¦"
      ],
      [
        "Ġà¦Ĩ",
        "à¦²"
      ],
      [
        "Ġà¦",
        "§"
      ],
      [
        "Ġà¦",
        "ī"
      ],
      [
        "Ġà¦",
        "¯"
      ],
      [
        "Ġà¦¨",
        "à¦¤"
      ],
      [
        "à¦",
        "ª"
      ],
      [
        "à¦ķ",
        "à¦²"
      ],
      [
        "Ġ",
        "an"
      ],
      [
        "Ġ",
        "he"
      ],
      [
        "à¤",
        "¢"
      ],
      [
        "à¤",
        "¼"
      ],
      [
        "Ġà¤¬",
        "à¤¢"
      ],
      [
        "a",
        "in"
      ],
      [
        "e",
        "t"
      ],
      [
        "Ġà¦Ĩ",
        "à¦ľ"
      ],
      [
        "Ġà¦¸",
        "à¦®"
      ],
      [
        "à¥",
        "Ĥ"
      ],
      [
        "à¥ĭ",
        "à¤Ĥ"
      ],
      [
        "à¤¸",
        "à¤²"
      ],
      [
        "Ġà¤«",
        "à¤¸à¤²"
      ],
      [
        "c",
        "e"
      ],
      [
        "Ġà¤",
        "Ĩ"
      ],
      [
        "à¤",
        "ª"
      ],
      [
        "s",
        "t"
      ],
      [
        "°",
        "à¤¹"
      ],
      [
        "Ġà¤",
        "°à¤¹"
      ],
      [
        "à¥Ī",
        "à¤Ĥà¥¤"
      ],
      [
        "Ġ",
        "in"
      ],
      [
        "Ġfo",
        "r"
      ],
      [
        "à¥¤",
        "à¥¤"
      ],
      [
        ".",
        "à¥¤"
      ],
      [
        "à¦",
        "¡"
      ],
      [
        "à¦¼",
        "à§ĩ"
      ],
      [
        "A",
        "n"
      ],
      [
        "Q",
        "u"
      ],
      [
        "s",
        "w"
      ],
      [
        "Ġ",
        "An"
      ],
      [
        "Ġ",
        "Qu"
      ],
      [
        "es",
        "tion"
      ],
      [
        "sw",
        "er"
      ],
      [
        "ĠAn",
        "swer"
      ],
      [
        "ĠQu",
        "estion"
      ],
      [
        "à¦¸",
        "à¦²"
      ],
      [
        "Ġà¦«",
        "à¦¸à¦²"
      ],
      [
        "Ġà¦ķà¦°",
        "à¦Ľ"
      ],
      [
        "à¦",
        "¦"
      ],
      [
        "à¦·à¦ķ",
        "à¦¦"
      ],
      [
        "Ġà¦ľ",
        "à¦¨"
      ],
      [
        "à¦¬",
        "à¦¹"
      ],
      [
        "à¤",
        "ľ"
      ],
      [
        "à¤°",
        "à¤¶"
      ],
      [
        "à¤¤",
        "à¤°"
      ],
      [
        "à¦·à¦ķ",
        "à¦°"
      ],
      [
        "Ġà¤ī",
        "à¤¤"
      ],
      [
        "Ġan",
        "d"
      ],
      [
        "à¤",
        "ı"
      ],
      [
        "Ġ",
        "m"
      ],
      [
        "Ġ",
        "i"
      ],
      [
        "l",
        "p"
      ],
      [
        "t",
        "s"
      ],
      [
        "à¥ĩ",
        "à¤Ĥ"
      ],
      [
        "Ġhe",
        "lp"
      ],
      [
        "ro",
        "p"
      ],
      [
        "Ġ",
        "g"
      ],
      [
        "Ġ",
        "b"
      ],
      [
        "al",
        "l"
      ],
      [
        "l",
        "i"
      ],
      [
        "Ġà¤",
        "²"
      ],
      [
        "u",
        "r"
      ],
      [
        "Ġ",
        "n"
      ],
      [
        "Ġfarm",
        "ing"
      ],
      [
        "l",
        "e"
      ],
      [
        "Ġfarm",
        "ers"
      ],
      [
        "o",
        "m"
      ],
      [
        "Ġ",
        "a"
      ],
      [
        "à¯ģ.",
        "à¥¤"
      ],
      [
        "à¦",
        "ģ"
      ],
      [
        "à§°",
        "à¦ķ"
      ],
      [
        "à¦·à¦ķ",
        "à§°"
      ],
      [
        "Ġà¦ļ",
        "à§°à¦ķ"
      ],
      [
        "à¦ļ",
        "à¦¨"
      ],
      [
        "Ġà¦¶",
        "à¦¸"
      ],
      [
        "Ġà¦Ĩà§°",
        "à¦®"
      ],
      [
        "à¯",
        "ĩ"
      ],
      [
        "à®¯",
        "à®²"
      ],
      [
        "Ġà®µ",
        "à®¯à®²"
      ],
      [
        "ĩ",
        "à®©"
      ],
      [
        "Ġà®",
        "ĩà®©"
      ],
      [
        "à®ķ",
        "à®µ"
      ],
      [
        "Ġà®®",
        "à®´"
      ],
      [
        "à¦¼",
        "à¦¿"
      ],
      [
        "à¦",
        "£"
      ],
      [
        "à¦",
        "ĸ"
      ],
      [
        "à§°",
        "à¦·"
      ],
      [
        "Ġà¦¬",
        "à¦¤"
      ],
      [
        "Ġà¦¬",
        "à§°à¦·"
      ],
      [
        "à¦·à¦ķ",
        "à¦¸"
      ],
      [
        "à§±",
        "à¦¨"
      ],
      [
        "Ġà¦¬à¦¤",
        "à§°"
      ],
      [
        "à¦·à¦ķà¦¸",
        "à¦ķà¦²"
      ],
      [
        "à®",
        "¨"
      ],
      [
        "Ġà®",
        "²"
      ],
      [
        "à®ķ",
        "à®±"
      ],
      [
        "à®¯",
        "à®°"
      ],
      [
        "à®ª",
        "à®Ł"
      ],
      [
        "à®ª",
        "à®®"
      ],
      [
        "Ġà®ī",
        "à®°"
      ],
      [
        "Ġà®ī",
        "à®¯à®°"
      ],
      [
        "Ġà®¨",
        "à®²"
      ],
      [
        "Ġà®®",
        "à®±"
      ],
      [
        "Ġà®¤",
        "à®ķ"
      ],
      [
        "à®´",
        "à®Ļ"
      ],
      [
        "ħ",
        "à®°"
      ],
      [
        "à¯",
        "Ģ"
      ],
      [
        "à¯",
        "Ĭ"
      ],
      [
        "Ġà®",
        "ħà®°"
      ],
      [
        "à®ķ",
        "à®³"
      ],
      [
        "à®Ł",
        "à®®"
      ],
      [
        "à®Ł",
        "à®Ļ"
      ],
      [
        "Ġà®ħà®°",
        "à®ļ"
      ],
      [
        "à¦",
        "¥"
      ],
      [
        "Ġà¦¬",
        "à¦¢"
      ],
      [
        "à§ĩà¥¤",
        "à¥¤"
      ],
      [
        "à¦¨",
        "à§°"
      ],
      [
        "à§±",
        "à§°à¦¤"
      ],
      [
        "Ġà¦ª",
        "à¦¥"
      ],
      [
        "Ġà¦«",
        "à¦ļà¦²"
      ],
      [
        "Ġà¦ī",
        "à§°"
      ],
      [
        "Ķ",
        "à¤°"
      ],
      [
        "Ġà¤",
        "Ķà¤°"
      ],
      [
        "i",
        "g"
      ],
      [
        "Ġà¤",
        "¨"
      ],
      [
        "a",
        "s"
      ],
      [
        "v",
        "es"
      ],
      [
        "Ġ",
        "D"
      ],
      [
        "Ġ",
        "w"
      ],
      [
        "a",
        "tion"
      ],
      [
        "à¤",
        "Ī"
      ],
      [
        "o",
        "d"
      ],
      [
        "t",
        "h"
      ],
      [
        "re",
        "c"
      ],
      [
        "d",
        "u"
      ],
      [
        "i",
        "l"
      ],
      [
        "o",
        "il"
      ],
      [
        "t",
        "y"
      ],
      [
        "Ġà¤ķ",
        "à¤°"
      ],
      [
        "Ġs",
        "oil"
      ],
      [
        "Ġhelp",
        "s"
      ],
      [
        "du",
        "ce"
      ],
      [
        "r",
        "ic"
      ],
      [
        "Ġà¤",
        "Ń"
      ],
      [
        "Ġc",
        "rop"
      ],
      [
        "g",
        "an"
      ],
      [
        "r",
        "gan"
      ],
      [
        "Ġà¤",
        "¡"
      ],
      [
        "Ġà¤",
        "¶"
      ],
      [
        "à¤¿",
        "à¤Ĥ"
      ],
      [
        "rgan",
        "ic"
      ],
      [
        "er",
        "ti"
      ],
      [
        "Ġf",
        "erti"
      ],
      [
        "at",
        "ur"
      ],
      [
        "Ġn",
        "atur"
      ],
      [
        "Ġferti",
        "li"
      ],
      [
        "T",
        "he"
      ],
      [
        "Ġ",
        "The"
      ],
      [
        "Ġp",
        "es"
      ],
      [
        "Ġg",
        "o"
      ],
      [
        "Ġin",
        "c"
      ],
      [
        "Ġp",
        "ro"
      ],
      [
        "a",
        "b"
      ],
      [
        "Ġ",
        "e"
      ],
      [
        "Ġà¤",
        "¦"
      ],
      [
        "ab",
        "le"
      ],
      [
        "ti",
        "c"
      ],
      [
        "m",
        "ic"
      ],
      [
        "Ġ",
        "o"
      ],
      [
        "à¤",
        "§"
      ],
      [
        "n",
        "t"
      ],
      [
        "à¤",
        "Ń"
      ],
      [
        "c",
        "he"
      ],
      [
        "m",
        "e"
      ],
      [
        "Ġà¤",
        "ľ"
      ],
      [
        "d",
        "es"
      ],
      [
        "i",
        "des"
      ],
      [
        "Ġà¤Ĩ",
        "à¤¯"
      ],
      [
        "à¤",
        "¦"
      ],
      [
        "Ġà¤",
        "µ"
      ],
      [
        "à¤¾",
        "à¤Ĥ"
      ],
      [
        "à¦",
        "ł"
      ],
      [
        "à¦°",
        "à¦¤"
      ],
      [
        "à¦¬",
        "à¦°à¦¤"
      ],
      [
        "Ġà¦ī",
        "à¦°"
      ],
      [
        "à§Ģ",
        "à¥¤"
      ],
      [
        "Ł",
        "à¦®"
      ],
      [
        "Ġà¦",
        "ĵ"
      ],
      [
        "Ġà¦",
        "Łà¦®"
      ],
      [
        "à¦¬",
        "à¦ľ"
      ],
      [
        "Ġà¦¸",
        "à¦¬à¦ľ"
      ],
      [
        "à¦°",
        "à¦ķ"
      ],
      [
        "à¦°",
        "à¦ķà¦²"
      ],
      [
        "Ġà¦¸",
        "à¦°à¦ķ"
      ],
      [
        "à¦",
        "§"
      ],
      [
        "à¦",
        "Ĥ"
      ],
      [
        "à¦¾",
        "à¦Ĥ"
      ],
      [
        "Ġà¦¬",
        "à¦¹"
      ],
      [
        "à¦¯",
        "à¦¬à¦¹"
      ],
      [
        "à¦¨",
        "à¦ķ"
      ],
      [
        "à¦Ń",
        "à¦ľ"
      ],
      [
        "à¦Ńà¦ľ",
        "à¦¨à¦ķ"
      ],
      [
        "à¦",
        "¶"
      ],
      [
        "à¦¬",
        "à¦¨"
      ],
      [
        "Ġà¦Ĩ",
        "à¦¬à¦¹"
      ],
      [
        "à§ĭ",
        "à¥¤"
      ],
      [
        "Ġà¦¹",
        "à¦ĵà¦¯"
      ],
      [
        "ı",
        "à¦ķ"
      ],
      [
        "Ġà¦",
        "ıà¦ķ"
      ],
      [
        "à¦¬",
        "à¦¸"
      ],
      [
        "Ġà¦Ĩ",
        "à¦¯"
      ],
      [
        "à¦¯",
        "à¦¬à¦¸"
      ],
      [
        "Ġà¦ıà¦ķ",
        "à¦Ł"
      ],
      [
        "à¦¼à¥¤",
        "à¥¤"
      ],
      [
        "à¥Īà¥¤",
        "à¥¤"
      ],
      [
        ".",
        "?"
      ],
      [
        "à¤¾",
        "à¥¤"
      ],
      [
        "Ł",
        "à¤®"
      ],
      [
        "à¤",
        "«"
      ],
      [
        "à¤",
        "¬"
      ],
      [
        "Ġà¤",
        "Łà¤®"
      ],
      [
        "à¦¿",
        "à¥¤"
      ],
      [
        "Ġà¤¸",
        "à¤¬"
      ],
      [
        "à¤Ł",
        "à¤°"
      ],
      [
        "à¤¼",
        "à¥ĩ"
      ],
      [
        "Ġà¤Ĩ",
        "à¤²"
      ],
      [
        "à§ĩà¥¤",
        "?"
      ],
      [
        "a",
        "ves"
      ],
      [
        "e",
        "l"
      ],
      [
        "f",
        "ic"
      ],
      [
        "i",
        "p"
      ],
      [
        "i",
        "el"
      ],
      [
        "i",
        "fic"
      ],
      [
        "l",
        "y"
      ],
      [
        "n",
        "ific"
      ],
      [
        "r",
        "r"
      ],
      [
        "r",
        "ip"
      ],
      [
        "t",
        "ly"
      ],
      [
        "y",
        "iel"
      ],
      [
        "Ġ",
        "yiel"
      ],
      [
        "an",
        "tly"
      ],
      [
        "Ġs",
        "ig"
      ],
      [
        "Ġs",
        "aves"
      ],
      [
        "re",
        "as"
      ],
      [
        "at",
        "er"
      ],
      [
        "Ġi",
        "rr"
      ],
      [
        "ig",
        "ation"
      ],
      [
        "ĠD",
        "rip"
      ],
      [
        "Ġw",
        "ater"
      ],
      [
        "Ġinc",
        "reas"
      ],
      [
        "nific",
        "antly"
      ],
      [
        "Ġyiel",
        "d"
      ],
      [
        "Ġsig",
        "nificantly"
      ],
      [
        "Ġirr",
        "igation"
      ],
      [
        "Ġincreas",
        "es"
      ],
      [
        "Ġà¤",
        "¯"
      ],
      [
        "à¤°",
        "à¤ķ"
      ],
      [
        "Ġà¤¸",
        "à¤°à¤ķ"
      ],
      [
        "à¤ľ",
        "à¤¨"
      ],
      [
        "Ġà¤¨",
        "à¤Ī"
      ],
      [
        "O",
        "rganic"
      ],
      [
        "a",
        "st"
      ],
      [
        "d",
        "ic"
      ],
      [
        "e",
        "at"
      ],
      [
        "e",
        "as"
      ],
      [
        "f",
        "all"
      ],
      [
        "h",
        "er"
      ],
      [
        "i",
        "r"
      ],
      [
        "i",
        "s"
      ],
      [
        "i",
        "v"
      ],
      [
        "i",
        "od"
      ],
      [
        "i",
        "rec"
      ],
      [
        "i",
        "ty"
      ],
      [
        "k",
        "et"
      ],
      [
        "m",
        "p"
      ],
      [
        "o",
        "on"
      ],
      [
        "r",
        "ain"
      ],
      [
        "s",
        "oon"
      ],
      [
        "t",
        "er"
      ],
      [
        "t",
        "he"
      ],
      [
        "Ġ",
        "th"
      ],
      [
        "Ġ",
        "Organic"
      ],
      [
        "Ġ",
        "rain"
      ],
      [
        "Ġ",
        "the"
      ],
      [
        "à¥",
        "ĥ"
      ],
      [
        "à¤°",
        "à¤¤"
      ],
      [
        "à¥ĩ",
        "à¤Ĥà¥¤"
      ],
      [
        "on",
        "soon"
      ],
      [
        "ar",
        "ket"
      ],
      [
        "Ġs",
        "eas"
      ],
      [
        "ro",
        "ves"
      ],
      [
        "Ġp",
        "re"
      ],
      [
        "Ġp",
        "ric"
      ],
      [
        "à¤µ",
        "à¤°à¤¤"
      ],
      [
        "al",
        "th"
      ],
      [
        "à¤¶",
        "à¤ķ"
      ],
      [
        "à¤Ł",
        "à¤¨"
      ],
      [
        "Ġà¤ī",
        "à¤°"
      ],
      [
        "Ġà¤ī",
        "à¤ª"
      ],
      [
        "Ġfo",
        "rec"
      ],
      [
        "ers",
        "ity"
      ],
      [
        "Ġhe",
        "alth"
      ],
      [
        "et",
        "ter"
      ],
      [
        "Ġm",
        "onsoon"
      ],
      [
        "Ġm",
        "arket"
      ],
      [
        "Ġi",
        "mp"
      ],
      [
        "Ġg",
        "et"
      ],
      [
        "Ġb",
        "iod"
      ],
      [
        "Ġb",
        "etter"
      ],
      [
        "all",
        "y"
      ],
      [
        "ĠD",
        "irec"
      ],
      [
        "Ġw",
        "eat"
      ],
      [
        "Ġnatur",
        "ally"
      ],
      [
        "Ġgo",
        "od"
      ],
      [
        "Ġpro",
        "duce"
      ],
      [
        "dic",
        "ts"
      ],
      [
        "iv",
        "ersity"
      ],
      [
        "Ġth",
        "is"
      ],
      [
        "Ġrain",
        "fall"
      ],
      [
        "Ġthe",
        "ir"
      ],
      [
        "Ġseas",
        "on"
      ],
      [
        "Ġpre",
        "dicts"
      ],
      [
        "Ġpric",
        "es"
      ],
      [
        "Ġà¤īà¤ª",
        "à¤¯"
      ],
      [
        "Ġforec",
        "ast"
      ],
      [
        "Ġmarket",
        "ing"
      ],
      [
        "Ġimp",
        "roves"
      ],
      [
        "Ġbiod",
        "iversity"
      ],
      [
        "ĠDirec",
        "t"
      ],
      [
        "Ġweat",
        "her"
      ],
      [
        "C",
        "rop"
      ],
      [
        "t",
        "ain"
      ],
      [
        "t",
        "ation"
      ],
      [
        "Ġ",
        "ro"
      ],
      [
        "Ġ",
        "re"
      ],
      [
        "Ġ",
        "Crop"
      ],
      [
        "Ġà¤",
        "§"
      ],
      [
        "à¤ļ",
        "à¤¤"
      ],
      [
        "Ġà¤¬",
        "à¤ļà¤¤"
      ],
      [
        "Ġà¤ħ",
        "à¤ª"
      ],
      [
        "à¤Ł",
        "à¤®"
      ],
      [
        "ain",
        "tain"
      ],
      [
        "Ġm",
        "aintain"
      ],
      [
        "Ġfertili",
        "ty"
      ],
      [
        "Ġpes",
        "ts"
      ],
      [
        "Ġro",
        "tation"
      ],
      [
        "Ġre",
        "duce"
      ],
      [
        "Ġà¤ħà¤ª",
        "à¤¨"
      ],
      [
        "à¥",
        "Į"
      ],
      [
        "à¤¸",
        "à¤®"
      ],
      [
        "Ġà¤¬",
        "à¤¹"
      ],
      [
        "à¤µ",
        "à¤¨"
      ],
      [
        "Ġà¤Ĩ",
        "à¤ľ"
      ],
      [
        "à¦¾",
        "à¥¤"
      ],
      [
        "S",
        "u"
      ],
      [
        "a",
        "c"
      ],
      [
        "b",
        "at"
      ],
      [
        "c",
        "ts"
      ],
      [
        "e",
        "cts"
      ],
      [
        "f",
        "f"
      ],
      [
        "g",
        "e"
      ],
      [
        "g",
        "ric"
      ],
      [
        "h",
        "an"
      ],
      [
        "l",
        "t"
      ],
      [
        "m",
        "at"
      ],
      [
        "r",
        "ac"
      ],
      [
        "u",
        "re"
      ],
      [
        "u",
        "lt"
      ],
      [
        "Ġ",
        "Su"
      ],
      [
        "à¯ģ.",
        "?"
      ],
      [
        "Ġp",
        "rac"
      ],
      [
        "Ġc",
        "li"
      ],
      [
        "Ġc",
        "om"
      ],
      [
        "Ġc",
        "han"
      ],
      [
        "ain",
        "able"
      ],
      [
        "st",
        "ainable"
      ],
      [
        "Ġa",
        "gric"
      ],
      [
        "Ġe",
        "ff"
      ],
      [
        "tic",
        "es"
      ],
      [
        "mat",
        "e"
      ],
      [
        "ult",
        "ure"
      ],
      [
        "ĠSu",
        "stainable"
      ],
      [
        "Ġprac",
        "tices"
      ],
      [
        "Ġcli",
        "mate"
      ],
      [
        "Ġcom",
        "bat"
      ],
      [
        "Ġchan",
        "ge"
      ],
      [
        "Ġagric",
        "ulture"
      ],
      [
        "Ġeff",
        "ects"
      ],
      [
        "à¤¯",
        "à¤°"
      ],
      [
        "V",
        "er"
      ],
      [
        "e",
        "g"
      ],
      [
        "l",
        "le"
      ],
      [
        "o",
        "st"
      ],
      [
        "p",
        "ost"
      ],
      [
        "v",
        "eg"
      ],
      [
        "x",
        "ce"
      ],
      [
        "z",
        "er"
      ],
      [
        "Ġ",
        "Ver"
      ],
      [
        "Ġ",
        "veg"
      ],
      [
        "et",
        "able"
      ],
      [
        "Ġi",
        "s"
      ],
      [
        "om",
        "post"
      ],
      [
        "Ġfertili",
        "zer"
      ],
      [
        "Ġe",
        "xce"
      ],
      [
        "mic",
        "ompost"
      ],
      [
        "Ġo",
        "rganic"
      ],
      [
        "lle",
        "nt"
      ],
      [
        "ĠVer",
        "micompost"
      ],
      [
        "Ġveg",
        "etable"
      ],
      [
        "Ġexce",
        "llent"
      ],
      [
        "F",
        "arm"
      ],
      [
        "a",
        "d"
      ],
      [
        "e",
        "ad"
      ],
      [
        "s",
        "ing"
      ],
      [
        "u",
        "sing"
      ],
      [
        "Ġ",
        "on"
      ],
      [
        "Ġ",
        "ar"
      ],
      [
        "Ġ",
        "Farm"
      ],
      [
        "Ġ",
        "using"
      ],
      [
        "he",
        "mic"
      ],
      [
        "Ġc",
        "hemic"
      ],
      [
        "st",
        "ead"
      ],
      [
        "Ġin",
        "stead"
      ],
      [
        "Ġnatur",
        "al"
      ],
      [
        "Ġpes",
        "tic"
      ],
      [
        "Ġo",
        "f"
      ],
      [
        "Ġon",
        "es"
      ],
      [
        "Ġar",
        "e"
      ],
      [
        "ĠFarm",
        "ers"
      ],
      [
        "Ġchemic",
        "al"
      ],
      [
        "Ġpestic",
        "ides"
      ],
      [
        "a",
        "u"
      ],
      [
        "e",
        "w"
      ],
      [
        "l",
        "au"
      ],
      [
        "n",
        "che"
      ],
      [
        "n",
        "me"
      ],
      [
        "s",
        "ur"
      ],
      [
        "v",
        "er"
      ],
      [
        "Ġ",
        "lau"
      ],
      [
        "ı",
        "à¤ķ"
      ],
      [
        "à¤",
        "ĸ"
      ],
      [
        "Ġà¤",
        "ıà¤ķ"
      ],
      [
        "Ġà¤®",
        "à¤§"
      ],
      [
        "à¤®",
        "à¤ķ"
      ],
      [
        "an",
        "ce"
      ],
      [
        "à¤²",
        "à¤¨"
      ],
      [
        "à¤¯",
        "à¤µ"
      ],
      [
        "Ġs",
        "che"
      ],
      [
        "à¤¹",
        "à¤¦"
      ],
      [
        "Ġin",
        "sur"
      ],
      [
        "Ġn",
        "ew"
      ],
      [
        "Ġà¤¶",
        "à¤¹à¤¦"
      ],
      [
        "Ġgo",
        "ver"
      ],
      [
        "nche",
        "d"
      ],
      [
        "nme",
        "nt"
      ],
      [
        "Ġlau",
        "nched"
      ],
      [
        "à¤¯à¤µ",
        "à¤¸"
      ],
      [
        "Ġsche",
        "me"
      ],
      [
        "Ġinsur",
        "ance"
      ],
      [
        "Ġgover",
        "nment"
      ],
      [
        "H",
        "on"
      ],
      [
        "d",
        "d"
      ],
      [
        "e",
        "e"
      ],
      [
        "e",
        "y"
      ],
      [
        "i",
        "tion"
      ],
      [
        "m",
        "all"
      ],
      [
        "v",
        "ides"
      ],
      [
        "Ġ",
        "Hon"
      ],
      [
        "Ġs",
        "mall"
      ],
      [
        "Ġb",
        "ee"
      ],
      [
        "om",
        "e"
      ],
      [
        "Ġa",
        "dd"
      ],
      [
        "Ġinc",
        "ome"
      ],
      [
        "Ġpro",
        "vides"
      ],
      [
        "ition",
        "al"
      ],
      [
        "ĠHon",
        "ey"
      ],
      [
        "Ġadd",
        "itional"
      ],
      [
        "à¤",
        "¡"
      ],
      [
        "Ġà¤",
        "¤"
      ],
      [
        "Ġà¤",
        "Ĺ"
      ],
      [
        "à¥Ĥ",
        "à¤Ĥ"
      ],
      [
        "Ġà¤ķ",
        "à¤®"
      ],
      [
        "à¤ķ",
        "à¤°"
      ],
      [
        "à¤ķ",
        "à¤¤"
      ],
      [
        "à¤ķ",
        "à¤®"
      ],
      [
        "Ġà¤¬",
        "à¤¨"
      ],
      [
        "Ġà¤ħ",
        "à¤¤"
      ],
      [
        "Ġà¤¸",
        "à¤ķà¤¤"
      ],
      [
        "Ġà¤µ",
        "à¤°"
      ],
      [
        "à¯į.",
        "à¥¤"
      ],
      [
        "à¤¾",
        "à¥¤à¥¤"
      ],
      [
        "à§Ģ",
        "à¥¤à¥¤"
      ],
      [
        ".",
        "."
      ],
      [
        "à¥Īà¤Ĥà¥¤",
        "à¥¤"
      ],
      [
        "à¥Ģ",
        "à¥¤"
      ],
      [
        "à¦¾",
        "à¥¤à¥¤"
      ],
      [
        "à¥Īà¥¤",
        "?"
      ],
      [
        "à¯ģ.",
        "."
      ],
      [
        "à¦¿",
        "à¥¤à¥¤"
      ],
      [
        "à¥Ģ",
        "à¥¤à¥¤"
      ],
      [
        "à§ĩà¥¤",
        "."
      ],
      [
        "à¦¼à¥¤",
        "?"
      ],
      [
        "à¥¤",
        "?"
      ],
      [
        "à¯į.",
        "?"
      ],
      [
        "à¥ĩà¤Ĥà¥¤",
        "à¥¤"
      ],
      [
        "à¥Īà¤Ĥà¥¤",
        "?"
      ],
      [
        "à¦¼à¥¤",
        "."
      ],
      [
        "à§Ģà¥¤",
        "?"
      ],
      [
        "à¤¾à¥¤",
        "?"
      ],
      [
        "à¥Īà¥¤",
        "."
      ],
      [
        "à¯į.",
        "."
      ],
      [
        "à¦¾à¥¤",
        "?"
      ],
      [
        "à§Ģà¥¤",
        "."
      ],
      [
        "à¦¿à¥¤",
        "?"
      ],
      [
        "à¥ĩà¤Ĥà¥¤",
        "?"
      ],
      [
        "à¥¤",
        "."
      ],
      [
        "à¥Īà¤Ĥà¥¤",
        "."
      ],
      [
        "à¦¿à¥¤",
        "."
      ],
      [
        "à¦¾à¥¤",
        "."
      ],
      [
        "à¤¾à¥¤",
        "."
      ],
      [
        "à¥Ģà¥¤",
        "."
      ],
      [
        "à¥ĩà¤Ĥà¥¤",
        "."
      ],
      [
        "à¥Ģà¥¤",
        "?"
      ]
    ]
  }
}